/**
  ******************************************************************************
  * @file    accelerometer_motion_data_params.c
  * @author  AST Embedded Analytics Research Platform
  * @date    Wed Jul 17 01:20:15 2024
  * @brief   AI Tool Automatic Code Generator for Embedded NN computing
  ******************************************************************************
  * Copyright (c) 2024 STMicroelectronics.
  * All rights reserved.
  *
  * This software is licensed under terms that can be found in the LICENSE file
  * in the root directory of this software component.
  * If no LICENSE file comes with this software, it is provided AS-IS.
  ******************************************************************************
  */

#include "accelerometer_motion_data_params.h"


/**  Activations Section  ****************************************************/
ai_handle g_accelerometer_motion_activations_table[1 + 2] = {
  AI_HANDLE_PTR(AI_MAGIC_MARKER),
  AI_HANDLE_PTR(NULL),
  AI_HANDLE_PTR(AI_MAGIC_MARKER),
};




/**  Weights Section  ********************************************************/
AI_ALIGNED(32)
const ai_u64 s_accelerometer_motion_weights_array_u64[13221] = {
  0xbe54ad1dbdbcec9cU, 0xbc68e5b23e59813eU, 0x3dba8cde3de0ccb6U, 0xbdb38db5bde45a6bU,
  0xbda6f1693e0fbb8cU, 0xbb94b6cbbcdfcd7bU, 0xbaeec6c7be472248U, 0xbe57d0ac3e99d0a3U,
  0x3e3f9ab83dd251b2U, 0xbe08696dbd805f7cU, 0xbd922fa1bdf758a2U, 0xbe988f013e06aab1U,
  0x3d17dd70bca98107U, 0x3d89b2e4be0ee1a4U, 0xbd92b858be04f3c2U, 0x3df21f2bbd959e8dU,
  0xbe273eebbe55e91bU, 0xbe4461b33c532165U, 0xbc3bde4cbe7217dcU, 0xbdad7f15be35c7ebU,
  0xbe7f9f04bcfafe41U, 0xbd82d4043c34e09eU, 0x3e63f140be0e6615U, 0xbde145dbbd8e55deU,
  0x3e58a4ab3e7dac81U, 0x3d4d82353dc43e66U, 0x3e02a3f53e77784dU, 0x3e40f462bd4112f4U,
  0x3e8a72f23e40a1a9U, 0x3d09cf9a3ca8baeaU, 0x3da4c0953e5b357eU, 0x3d2adc2a3e9553b5U,
  0x3ca008c2be6301e7U, 0x3ba492d2bc3f63ccU, 0x3e3c87b93dd4665fU, 0xbcc2a4eebe28b21bU,
  0xbdc80714be20efc5U, 0x3e0c03be3dbd2d6dU, 0x3d71e3dbbe4bb8a3U, 0xbde45e2abd143fceU,
  0xbe2a7f263d82e0e6U, 0xba5b8dd2be0c33a2U, 0x3c99dcf0bd7cf8cbU, 0xbe88d3c63df517ddU,
  0xbd4efdae3ce7287fU, 0xbdd74648bbf9d62dU, 0x3da8b5223e21ad38U, 0x3c0cecd2be37045dU,
  0xbe38969ebe88996bU, 0xbd9e4757be0c0a09U, 0x3e8c04723e06fc5cU, 0xbd8a2e0f3e5dd840U,
  0x3cd801e73e1985afU, 0x3dffce1abe27cb8dU, 0x3d0529f23e6f5131U, 0x3e42b51d3e856584U,
  0x3e9082713bc7671fU, 0x3cafaae53e26b45bU, 0x3e49f62d3e8db6c1U, 0x3df200f2bc80b910U,
  0x3c824a093e24427fU, 0x3dbf68c33e0ba78cU, 0x3ea4ab3a3d0857dbU, 0xbe255d5e3cb66469U,
  0xbdce2290be2be64dU, 0xbe7089663d929a70U, 0xbdf126c3be528831U, 0x3d9e726bbe3ce903U,
  0xbe7e5db13ced3d33U, 0x3e0b8487bb84bca2U, 0xbd264000be1f8b26U, 0xbe88c85b3e3fef9bU,
  0x3e120cc3be182877U, 0xbe3ca6c83d7c3eb5U, 0x3e8933c5bdcdc715U, 0xba34e804bdf25b6aU,
  0xbe76f67a3e82d341U, 0xbe2f76303e0cafeaU, 0x3c0d3dc0be2caebdU, 0xbdc4a676be1e1c69U,
  0xbe4b562fbdd85743U, 0xbe2e3f9d3d09e08eU, 0xbe82d1133df34accU, 0x3d124b533d3e2e9cU,
  0xbe1307603e2c6b02U, 0x3d0298afbdb8a44aU, 0xbd9d883bbda35c41U, 0xbd212abfbde7d07bU,
  0x3d21a749bbbce4e0U, 0x3d0097a3be156170U, 0x3deca312bdfec7d5U, 0x3e9449f3bd9f406dU,
  0x3d81aacd3e073564U, 0xbde1b68f3e1bd1dfU, 0xbc33b9373e8cafabU, 0xbe784aaabd445fb0U,
  0x3d85641bbe3a3d3dU, 0xbd707affbd83918dU, 0xbe5c3d8b3d3e9124U, 0xbe09d7d63e355265U,
  0xbe429a5bbdf6c07cU, 0xbdfc4127bd09eef0U, 0xbe3a935b3de2d4ddU, 0x3e359b2abd8f7fb7U,
  0xbc0333343d559074U, 0xbe0630593e488257U, 0x3e4aeb1abddc7065U, 0x3e90c713bd759b18U,
  0xbcefe8d13d254985U, 0xbdf28c833de74b04U, 0x3e8b95e6bd4670d8U, 0x3e8425a5bd030ca8U,
  0x3d5cd83e3dfc0c65U, 0xbdda1233be60995fU, 0xbe0d3d2c3df46041U, 0xbd9cfc113d7b5b17U,
  0xbe3c2298be220275U, 0xbd8d864abd3228b3U, 0xbcae0c5ebe43aa67U, 0xbe11eb5dbc213a9fU,
  0x3b030afdbe6dfaadU, 0xbe2be96bbe8a9154U, 0x3e1586763dcc2907U, 0x3e8fd294bd98d3f7U,
  0x3d84b9c4bdef2099U, 0x3e8cc95a3e4ac096U, 0xbd9868003e22d826U, 0xbdd0bc043d089666U,
  0xbccdcf53bd2168b3U, 0xbe5a95dcbd305a8fU, 0xbdc7c24abd70101eU, 0x3e133b60be4ecc75U,
  0xbe7f64c8bd37645fU, 0xbe1aac0b3dafaabfU, 0xbcee87fb3d845cf1U, 0xbd44f50c3dd43d74U,
  0x3d041e0d3e336093U, 0x3e4474c63e1f1e8fU, 0xbd15b7acbd402799U, 0xbd51c0593e03689fU,
  0xbe3c74c13b364536U, 0xbdce3dcfbc78aa4aU, 0xbe865a26be0dde75U, 0x3dc186083ce38a68U,
  0xbdcc15783e4d4892U, 0x3e82c8793e600a93U, 0xbc7a65b03dc4763cU, 0x3e112c873e8150c3U,
  0x3d15a5dd3ca8a65cU, 0x3e8a83653d6c6feaU, 0xbce7744fbe39a08dU, 0x3d81ab2f3db89af7U,
  0xbe7c199bbd9bcf85U, 0xbdbb7d703e2c84ecU, 0x3ddd65c53df3beceU, 0x3e76a0003d38e54bU,
  0x3de1b477be75d7d3U, 0x3dd274523e998f0dU, 0xbdf0cb2abddc1992U, 0x3dfae44dbdb79741U,
  0x3d8323383cf08e7cU, 0xbddc98a5be3beb8fU, 0xbe201a12be374ae0U, 0xbcff2885be480084U,
  0xbe66212ebdd4c11fU, 0xbd078078be1e7643U, 0x3d89ba353d86e300U, 0x3e34fdf2bd6e8248U,
  0x3d15abf43e7b2478U, 0x3e24996fbd95c86bU, 0x3e600d5c3d0af9dcU, 0xbe4783513d22b3dcU,
  0xbd13a3bd3d370622U, 0x3df9c0bd3df7ae8fU, 0xbe3cac663e201687U, 0x3de3997a3c16f861U,
  0xbd92c9de3e2bcbafU, 0xbd00d4e2bc01ef47U, 0xbe4f2915bdcd3c5dU, 0xbe676f49be15fd27U,
  0xbda44d7ebda03b6bU, 0x3d4833c7be4723aaU, 0xbe8dfa87bcbf68b6U, 0xbd40df50bcb52ee1U,
  0x3e020ad7be881d18U, 0xbe847fa73ce150c7U, 0xbdb3cc64bd841ed6U, 0xbe5c9289bdb7f027U,
  0x3e6b2b4e3df055e3U, 0x3cb309423d5cc77eU, 0xbe294b3a3e2cf2c5U, 0x3e4ea5d9be0f8479U,
  0x3e5c436cbdfe80cbU, 0x3cf20d8b3e42720fU, 0xbd897460be742a94U, 0xbe0dbb2d3d147194U,
  0x3e2ddf10bdf0f8ecU, 0x3b6ed954be36e426U, 0xbe6a644f3c9488a2U, 0x3c9b089b3e0cc4e4U,
  0xbe0c4823be1abbedU, 0x3de95e9abe6bdc89U, 0xbda23a31be02abfcU, 0xbc0ecea8bdbde5b1U,
  0xbd850f67bcc844ccU, 0x3dd2d09cbc83b0f3U, 0xbc61d4cc3ceddac5U, 0x3db721f4be3083edU,
  0xbe5137b8bc00a913U, 0xbe5e2c263bb9855cU, 0xbd22f94cbe2aa6c7U, 0xbe484416be8276abU,
  0xbc9f9896bdb96686U, 0xbc7121a53dbe3a50U, 0xbe4b26b4be6c3760U, 0x3dc57e97bd2e75d7U,
  0xbbc2ae9b3da474e6U, 0xbe0f8b1dbdb08277U, 0xbdc3ed8c3da002e1U, 0x3d8d5306bd8eee28U,
  0x3e205180be81c97cU, 0x3e7c92b23ccbacf5U, 0x38aff0483d0ce985U, 0xbdd420af3e5eb69eU,
  0x3e9c8dec3e596692U, 0x3e4c1a533e624f64U, 0x3e8bf69a3c7bab24U, 0x3e30881c3e53c6a8U,
  0xbd97b1303e16634fU, 0x3e788a713d7fcf0cU, 0x3d8173d43e0200b9U, 0x3e0471483caa16aeU,
  0x3d562a363e883ae1U, 0x3e976c193d79225fU, 0x3e27b7e53d8c191cU, 0xbcc25d6e3e07e77dU,
  0x3e415058bca9296cU, 0x3c4ccc473e640f76U, 0x3e36f5c93e24c97aU, 0xbd7c01c03d9169b1U,
  0xbdfa9ee03e4174dbU, 0xbdb450913d820a61U, 0x3e6b83fa3daeaa57U, 0x3d7154053bbec75cU,
  0xbe3fc226bd2f51bbU, 0xbe5a2ad2bc821e71U, 0xbd2f18e5be4f5ca5U, 0xbe1af8b8be5f557cU,
  0xbd8ca7b1bc346353U, 0xbd99aef3be494107U, 0x3e115d4a3e81a21eU, 0x3e6457373d907c20U,
  0xbe3a2dca3df2d926U, 0xbdb7092d3de104d3U, 0xbe1daf033dc3c4dbU, 0xbd7abc093d8bbe87U,
  0x3e5c1e5c3e27a035U, 0x3e4848f33d95a11aU, 0xbe1bb42abe2f21caU, 0xbe27e0293da8f528U,
  0x3e9ae0c73dfaece0U, 0xbdf811ebbddd66caU, 0xbe2eb307be18b28dU, 0xbe055536bdec2d69U,
  0xbe240eb63d53f3d1U, 0x3e007c29bdd031bdU, 0xbe14a7debe229940U, 0xbe0cf1ef3df9c512U,
  0xbe0b5682be1f0fd5U, 0xbd6997b7be097050U, 0xbe3dd334be0e469eU, 0x3cc5fb3c3d879a03U,
  0x3d3f72b6bde00b0cU, 0xbd2a20973e0fd90aU, 0xbd4f15343baeb256U, 0xbd94d1a93d52ef47U,
  0xbe5037193d9bddd3U, 0xbe6132123e042bcbU, 0xbdff7dacbde5e7c3U, 0xbdd9ec01be2f4bc7U,
  0xbe60421dbda44a51U, 0xbd988ee0be195e07U, 0x3e521974be7e740cU, 0x3e7d1d383e007212U,
  0x3e91d530bdada15fU, 0x3e236e303e84371bU, 0x3e3b7a503d64da0eU, 0x3d4affff3db3e132U,
  0x3b81daf13d4ac5f6U, 0xbccead3cbcb4f714U, 0x3d4ed1c4bd0d4b2cU, 0x3dbc5b423cebec55U,
  0xbcb61df83daf4d16U, 0xbca3c9173daa85f7U, 0xbb500eb13cbfd209U, 0x3d329895bd536011U,
  0xbcab0616bc0bf6b4U, 0x3d9581773dc34eb1U, 0xbc9d4f633d11f497U, 0xbbc3ba263dbe149fU,
  0x3db87ccd3c498bceU, 0x3d7801cfbcf8af4aU, 0x3d64f4ff3dac825dU, 0xbcab7869bb71d230U,
  0xbc5e6b13bcbd4f69U, 0x3d9e8e44bc5ea4ccU, 0xbbcb9dcabd5b5ccfU, 0xbcb116163dafe99eU,
  0x3c63d56dbd3e3200U, 0x3db214703c133092U, 0x3dbd0d293dc37d40U, 0xbcef5384bcd7f3deU,
  0x3d347c4d3c1dfc87U, 0x3d6f2bd43d152ac5U, 0x3c82e9833d03f248U, 0xbc5d48f9bd07f498U,
  0xbaef67fe3db21740U, 0x3d63891c3d9974f7U, 0x3dd3f1693dbb092eU, 0xbc92b4fbbc718f5cU,
  0xbda5c532bd50659eU, 0xbcd0659ebcd0659eU, 0x3d2a81b000000000U, 0x3c178fb93e1eaa75U,
  0x3e095a3f3d7fc288U, 0x3e2366f33da5c532U, 0xbb178fb93be35795U, 0x3daa81b03d33faabU,
  0xbd50659e3e2f3e2eU, 0xbe023f83bd2108b4U, 0x3e38b7293c3d73a7U, 0xbdaf3e2e3d7fc288U,
  0x3cbd73a73e0bb87eU, 0x3dcba9203e2f3e2eU, 0xbd6cd091bdffc288U, 0x3dbd73a73da5c532U,
  0x3e178fb93e1eaa75U, 0x3c3d73a73e2f3e2eU, 0x3c3d73a73dfb060aU, 0xbd2108b43d50659eU,
  0xbd2a81b03e494ae1U, 0x3be357953d049dc2U, 0x3dd5221c3caa81b0U, 0x3de35795bd7fc288U,
  0x3e095a3f3df18d0eU, 0x3e2cdfef3dde9b17U, 0x3da5c5323d92d33bU, 0x3e0bb87e3cf6498cU,
  0x3e15317a3b178fb9U, 0x3df18d0e3d46eca2U, 0xbd0e16bdbd59de99U, 0x3e2108b43e33faabU,
  0xbd8e16bdbd049dc2U, 0xbcf6498c3c3d73a7U, 0x3e023f833d2108b4U, 0xbdb8b729bb978fb9U,
  0xbd76498c3da5c532U, 0x3be35795bde35795U, 0x3d6cd0913e12d33bU, 0x3e423025bd049dc2U,
  0x3d978fb93e1c4c36U, 0x3de35795bdc6eca2U, 0x3c178fb93e1074fcU, 0xbcaa81b0bdde9b17U,
  0xbd33faab3e2f3e2eU, 0x3dbd73a7bb978fb9U, 0x3db8b729be095a3fU, 0xbd0e16bd3dd9de99U,
  0x3c849dc23dffc288U, 0xbd895a3f3d2108b4U, 0xbd46eca23e3b1568U, 0xbd8e16bdbd92d33bU,
  0x3cbd73a73dd9de99U, 0xbd9c4c363e2cdfefU, 0xbd978fb9bd2108b4U, 0x3d50659e3db3faabU,
  0x3e1eaa75bc3d73a7U, 0x3d978fb93e25c532U, 0x3cbd73a73d978fb9U, 0x3e12d33bbb978fb9U,
  0x3d8e16bd3da108b4U, 0x3ce357953de35795U, 0x3dde9b173d76498cU, 0xbb978fb93d0e16bdU,
  0x3d50659e3e049dc2U, 0x3d178fb93be35795U, 0xbc849dc23e25c532U, 0x3c178fb93e1074fcU,
  0xbd33faab3c978fb9U, 0xbd6cd0913caa81b0U, 0x3dd9de993e282371U, 0x3d635795bc978fb9U,
  0xbce357953e2cdfefU, 0x3cbd73a73c978fb9U, 0x3dd5221c3d50659eU, 0x3db8b72900000000U,
  0x3b978fb9bd76498cU, 0x3e049dc23c978fb9U, 0x3c849dc23d0e16bdU, 0xbd76498cbcd0659eU,
  0xbbe35795bd635795U, 0x3da108b43e2f3e2eU, 0xbd0e16bdbd635795U, 0x3caa81b0bcbd73a7U,
  0x3df18d0ebcaa81b0U, 0xbd9c4c363df18d0eU, 0xbd9c4c363d9c4c36U, 0x3dffc2883e19edf8U,
  0x3b178fb9bd8e16bdU, 0xbd6357953b178fb9U, 0xbd6357953df6498cU, 0x3db8b729bc178fb9U,
  0x3d9c4c363dd0659eU, 0x3d2a81b0bdd5221cU, 0xbdde9b173d849dc2U, 0x3e2a81b0bc3d73a7U,
  0x3d76498c3de35795U, 0x3da108b43e38b729U, 0x3e59de993e1eaa75U, 0xbd049dc23e0e16bdU,
  0x3c178fb9bd8e16bdU, 0x3dd0659ebd178fb9U, 0xbce357953d895a3fU, 0xbd46eca23d978fb9U,
  0x3e25c5323ce35795U, 0x3c978fb93caa81b0U, 0x3dbd73a73c635795U, 0x3d0e16bdbdd0659eU,
  0xbc178fb93d8e16bdU, 0x3d895a3f3e19edf8U, 0x3cbd73a73db3faabU, 0xbd6cd0913e0bb87eU,
  0x3dd0659ebcbd73a7U, 0xbe049dc23e2366f3U, 0xbcf6498cbb178fb9U, 0x3e2366f3bde35795U,
  0x3d895a3f3b978fb9U, 0x3c849dc23e5e9b17U, 0xbd978fb93e15317aU, 0xbd33faab3d0e16bdU,
  0x3da5c5323d8e16bdU, 0xbc978fb93dc23025U, 0x3e3b15683e15317aU, 0x3b978fb93e33faabU,
  0x3c178fb9bce35795U, 0xbcbd73a7bde35795U, 0x3df18d0ebd8e16bdU, 0x3dfb060a3be35795U,
  0x3e319c6c3dde9b17U, 0x3d2108b43e38b729U, 0x3e15317a3d2108b4U, 0x3de357953dc6eca2U,
  0xbd3d73a73d3d73a7U, 0x3e049dc23d76498cU, 0x3db8b7293d635795U, 0x3e19edf83c3d73a7U,
  0xbd178fb93e4e075fU, 0x3d978fb93daa81b0U, 0x3d3d73a7bbe35795U, 0xbd7fc288bd9c4c36U,
  0x3dbd73a73e25c532U, 0x3e52c3dd3c178fb9U, 0xbc3d73a7bdaa81b0U, 0x3d3d73a73d50659eU,
  0x3be357953d92d33bU, 0xbc178fb93e095a3fU, 0x3d6cd0913d049dc2U, 0x3e2f3e2ebd978fb9U,
  0xbce357953db8b729U, 0xbd8e16bd3e1074fcU, 0x3d2108b4bdbd73a7U, 0x3e2a81b03d9c4c36U,
  0xbcbd73a73dd9de99U, 0x3e60f9563e59de99U, 0x3c849dc23dcba920U, 0x3e095a3f3dde9b17U,
  0x3e19edf8bd895a3fU, 0xbd178fb93d92d33bU, 0xbd7fc2883d2108b4U, 0x3e2108b4bd049dc2U,
  0x3d7fc2883d3d73a7U, 0xbd049dc23d849dc2U, 0x3dd5221c3e494ae1U, 0xbbe357953daa81b0U,
  0x3d2a81b03dd9de99U, 0xbd849dc2bcd0659eU, 0xbc178fb93ce35795U, 0x3e0e16bd3df18d0eU,
  0x3db8b729bcf6498cU, 0xbd50659ebcaa81b0U, 0x3c178fb900000000U, 0x3e0e16bdbce35795U,
  0x3cbd73a73cbd73a7U, 0xbd0e16bd3e33faabU, 0x3daf3e2e3d2a81b0U, 0xbd0e16bd3cbd73a7U,
  0x3decd091bd50659eU, 0x3cbd73a73e178fb9U, 0x3dbd73a7bce35795U, 0x3dfb060a3d50659eU,
  0x3dc6eca2bd3d73a7U, 0x3cbd73a73e78a7cbU, 0xbc978fb93b978fb9U, 0x3e3fd1e6bd178fb9U,
  0x3d6357953b178fb9U, 0xbd2108b43e319c6cU, 0x3e1c4c363e52c3ddU, 0x3e319c6cbcf6498cU,
  0x3d2a81b0bd049dc2U, 0x3de81413bd2108b4U, 0xbd978fb9U, 0x3e1074fc3e50659eU,
  0x3dd5221c3d7fc288U, 0x3d0e16bd3e023f83U, 0x3dde9b173da5c532U, 0xbd2a81b03dbd73a7U,
  0xbb978fb93d59de99U, 0x3d92d33b3dd9de99U, 0x3cd0659e3e33faabU, 0x3db3faab3d9c4c36U,
  0x3e33faabbcd0659eU, 0x3d049dc23d178fb9U, 0x3d978fb93d7fc288U, 0x3e33faabbd978fb9U,
  0x3d46eca23c849dc2U, 0xbcbd73a73e5c3cd8U, 0xbdcba920bd33faabU, 0xbc849dc2bb978fb9U,
  0x3e5c3cd83d46eca2U, 0x3c978fb93be35795U, 0x3e4e075f3be35795U, 0xbb978fb9bdb3faabU,
  0x3b178fb9bb178fb9U, 0x3d2a81b0bd7fc288U, 0x3d7fc288bd635795U, 0x3e1c4c363d849dc2U,
  0x3dfb060a3e2366f3U, 0xbc978fb93e2cdfefU, 0xbc178fb93da5c532U, 0x3e4ba9203d049dc2U,
  0xbd3d73a7bdfb060aU, 0x3b978fb93d76498cU, 0x3d46eca23d50659eU, 0x3d2a81b0bd2108b4U,
  0x3d7fc2883e15317aU, 0x3e2108b4bd178fb9U, 0x3be357953e2cdfefU, 0xbd178fb93dc23025U,
  0x3e52c3dd3dd9de99U, 0x3e7b060abb978fb9U, 0x3e6814133e836ea2U, 0x3c978fb93e2cdfefU,
  0x3e1eaa753daa81b0U, 0xbd76498cbdd0659eU, 0x3e448e643e46eca2U, 0x3e2366f3bdf18d0eU,
  0xbdfb060a3e0e16bdU, 0x3dbd73a73db3faabU, 0x3cbd73a7bd59de99U, 0x3dd0659e3da5c532U,
  0x3e1c4c363dc23025U, 0xbde814133d849dc2U, 0x3e6a72523d8e16bdU, 0x3d50659ebc3d73a7U,
  0x3e049dc23e33faabU, 0xbd6357953e8bb87eU, 0x3caa81b03b978fb9U, 0x3b178fb93d978fb9U,
  0x3e494ae1bd0e16bdU, 0x3e59de993e718d0eU, 0x3c178fb93e59de99U, 0x3e2f3e2ebce35795U,
  0x3e836ea23d6cd091U, 0x3c978fb93d92d33bU, 0xbdc23025bd3d73a7U, 0x3e52c3dd3d0e16bdU,
  0x3daf3e2ebdfb060aU, 0xbdde9b17bdc6eca2U, 0xbc849dc23d33faabU, 0x3d76498cbdfb060aU,
  0x3daa81b03d76498cU, 0x3dd0659ebcd0659eU, 0xbdffc288bd0e16bdU, 0xbdd0659ebdaf3e2eU,
  0xbb178fb9bdbd73a7U, 0xbda108b43daa81b0U, 0xbe095a3f3d2a81b0U, 0x3ce357953d76498cU,
  0xbd76498cbde35795U, 0xbde357953d2108b4U, 0xbcf6498c3d7fc288U, 0xbdecd091bdcba920U,
  0x3c178fb9bd049dc2U, 0xbc849dc23dde9b17U, 0x3d59de99be06fc00U, 0xbdffc288bce35795U,
  0xbd178fb9bc3d73a7U, 0xbd3d73a73dd9de99U, 0xbe1074fcbdb3faabU, 0x3c3d73a7bdc6eca2U,
  0x3dcba920bc849dc2U, 0x3db8b7293daf3e2eU, 0x3dbd73a7bde81413U, 0x3d049dc23d3d73a7U,
  0xbdfb060abdc6eca2U, 0x3caa81b03dcba920U, 0x3d9c4c363cf6498cU, 0x3d59de993cbd73a7U,
  0xbd178fb93caa81b0U, 0xbdde9b173daa81b0U, 0xbdaf3e2ebe0bb87eU, 0x3d46eca23dde9b17U,
  0xbcaa81b0bb178fb9U, 0x3dcba9203d2108b4U, 0x3d849dc2be0bb87eU, 0xbdd0659ebdfb060aU,
  0x3d7fc2883d3d73a7U, 0xbdc6eca2bd9c4c36U, 0x3d2a81b03d6cd091U, 0x3be357953c978fb9U,
  0xbda5c532bde81413U, 0x3dde9b17bda108b4U, 0x3d049dc23caa81b0U, 0x3d178fb93dd9de99U,
  0xbb978fb9bdc6eca2U, 0x3d2a81b0bc635795U, 0xbb178fb9bdaf3e2eU, 0xbd178fb900000000U,
  0x3d9c4c363d635795U, 0x3d895a3fbc178fb9U, 0x3dcba920bcd0659eU, 0x3dd5221c3d2108b4U,
  0x3dde9b173ce35795U, 0xbd46eca23dbd73a7U, 0xbdf18d0ebd76498cU, 0x3dde9b173de35795U,
  0xbc178fb9bdc6eca2U, 0x3d2a81b0be06fc00U, 0xbe06fc003d8e16bdU, 0xbe095a3f3d978fb9U,
  0xbe049dc23d6cd091U, 0xbc978fb9bc849dc2U, 0x3dc23025bd178fb9U, 0xbdde9b173caa81b0U,
  0xbd8e16bdbe095a3fU, 0x3daa81b0be12d33bU, 0x3dd0659ebd92d33bU, 0xbd50659e3dcba920U,
  0x3da108b43da108b4U, 0x3dcba920bd8e16bdU, 0xbdcba920bdde9b17U, 0xbd2108b4bd76498cU,
  0xbdecd0913d50659eU, 0x3dc6eca2bd76498cU, 0xbd33faabbd76498cU, 0xbcaa81b0bd92d33bU,
  0x3d33faab3d46eca2U, 0xbda108b4bd76498cU, 0x3dc6eca2be0e16bdU, 0xbd92d33b3d92d33bU,
  0xbd9c4c363c178fb9U, 0x3d50659ebbe35795U, 0xbd50659ebbe35795U, 0x3dcba920bdf6498cU,
  0xbd33faab3d9c4c36U, 0xbcd0659e3cf6498cU, 0xbdaf3e2e3d978fb9U, 0x3d50659ebe1074fcU,
  0xbcbd73a7bd895a3fU, 0x3d33faabbcf6498cU, 0x3d849dc2bc849dc2U, 0xbb178fb9bdc23025U,
  0x3db8b729bd0e16bdU, 0xbd3d73a73d2a81b0U, 0x3d849dc23ce35795U, 0x3d0e16bdbdaa81b0U,
  0x3b978fb9be0bb87eU, 0x3be35795bdaf3e2eU, 0x3d3d73a73c978fb9U, 0xbd33faabbe0e16bdU,
  0x3d978fb9bd2108b4U, 0x3d0e16bd3dc6eca2U, 0xbd33faabbd3d73a7U, 0xbd049dc23d2a81b0U,
  0xbdde9b173de81413U, 0xbdaa81b0bcf6498cU, 0x3d978fb9be0bb87eU, 0x3d178fb9bd33faabU,
  0xbdd9de99bc978fb9U, 0xbc635795bdaa81b0U, 0x3d049dc23dcba920U, 0xbda108b43cbd73a7U,
  0xbc978fb93daa81b0U, 0xbd6357953d635795U, 0x3db3faab3be35795U, 0xbc978fb9bde35795U,
  0xbcf6498c3d9c4c36U, 0xbb978fb9bdc23025U, 0x3dbd73a73d7fc288U, 0x3dbd73a73d2a81b0U,
  0xbda108b4bd33faabU, 0x3caa81b03de35795U, 0xbde35795bd6cd091U, 0xbe0e16bdbdde9b17U,
  0x3d635795bc978fb9U, 0x3d0e16bdbe3658eaU, 0xbda108b43c3d73a7U, 0x3d8e16bdbd049dc2U,
  0xbdcba9203dcba920U, 0xbe38b7293e3658eaU, 0xbd3d73a73d2108b4U, 0xbdcba920be15317aU,
  0xbc3d73a73d3d73a7U, 0x3d8e16bd3e3fd1e6U, 0xbd2108b4bde81413U, 0xbdbd73a73e023f83U,
  0x3d3d73a7bd2a81b0U, 0xbe12d33b3c635795U, 0x3dd9de993ce35795U, 0x3d049dc2bce35795U,
  0xbe12d33bbdffc288U, 0x3e50659e3db8b729U, 0xbe2cdfefbd6cd091U, 0xbdf18d0ebd849dc2U,
  0xbde357953ce35795U, 0x3d849dc23d92d33bU, 0xbd049dc23e4ba920U, 0x3b178fb9bd33faabU,
  0x3d59de99be0bb87eU, 0xbdc6eca23b978fb9U, 0xbd978fb9bd895a3fU, 0xbd92d33bbb178fb9U,
  0xbd92d33b3d635795U, 0x3e023f833d50659eU, 0x3de357953cf6498cU, 0x3d635795bd178fb9U,
  0xbd635795bdbd73a7U, 0xbd0e16bdbe25c532U, 0xbd049dc2bc849dc2U, 0x3dde9b17bdc23025U,
  0xbe1eaa753b178fb9U, 0x3daa81b0bd2108b4U, 0xbe319c6cbd635795U, 0x3c849dc23d6cd091U,
  0xbe0e16bdbd2108b4U, 0x3e2cdfef3dfb060aU, 0xbcf6498cbd978fb9U, 0xbe15317a3b178fb9U,
  0x3df6498c3d0e16bdU, 0xbe06fc003c3d73a7U, 0x3e0e16bdbbe35795U, 0xbe1c4c363d46eca2U,
  0xbe2a81b03cf6498cU, 0x3cf6498cbc978fb9U, 0xbcbd73a73be35795U, 0x3ce357953dc6eca2U,
  0xbe1074fcbdf6498cU, 0x3e3d73a7bde35795U, 0x3d59de993e3658eaU, 0xbc978fb9be282371U,
  0xbe33faabbe049dc2U, 0xbda108b4be448e64U, 0xbd8e16bdbb178fb9U, 0xbd049dc23b978fb9U,
  0xbd46eca23c3d73a7U, 0x3c178fb93df18d0eU, 0x3e33faab3dfb060aU, 0x3da108b43b978fb9U,
  0x3c6357953c849dc2U, 0x3be35795bb978fb9U, 0xbe12d33bbe2f3e2eU, 0xbd8e16bdbe2cdfefU,
  0x3d978fb93d849dc2U, 0x3b978fb93e3d73a7U, 0xbe19edf83c849dc2U, 0xbe2a81b03c3d73a7U,
  0xbdde9b17be2f3e2eU, 0x3be357953db3faabU, 0xbcf6498cbe3b1568U, 0x3dc230253dd5221cU,
  0x3e0bb87ebe06fc00U, 0xbdd5221cbd635795U, 0x3d6cd0913cbd73a7U, 0xbd2108b4be0bb87eU,
  0xbbe35795bcf6498cU, 0x3d178fb9be178fb9U, 0xbdbd73a7bdfb060aU, 0x3c849dc23df6498cU,
  0x3d178fb9be282371U, 0x3cbd73a7bdc23025U, 0xbd7fc2883dcba920U, 0xbdb8b729bd2a81b0U,
  0x3cf6498cbe25c532U, 0xbd46eca23d2108b4U, 0x3b178fb93cf6498cU, 0xbe3b1568bd9c4c36U,
  0x3c849dc23e319c6cU, 0x3daf3e2ebd33faabU, 0x3dc230253e095a3fU, 0xbd8e16bdbdecd091U,
  0xbde814133dc6eca2U, 0xbb978fb9be15317aU, 0xbe635795be33faabU, 0x3dcba920bd92d33bU,
  0x3be357953d33faabU, 0xbe5c3cd83d849dc2U, 0xbe423025bd635795U, 0x3c178fb93da108b4U,
  0xbbe35795be15317aU, 0xbcd0659e3c178fb9U, 0x3d978fb9bdb3faabU, 0xbd33faab3d8e16bdU,
  0x3e2cdfefbe0bb87eU, 0x3cd0659ebd33faabU, 0x3d895a3f3d178fb9U, 0xbdc23025be494ae1U,
  0xbdb3faabbd6cd091U, 0x3d46eca2bd2a81b0U, 0xbdaa81b0bd049dc2U, 0xbdb3faab3e3658eaU,
  0xbd3d73a7be1074fcU, 0xbd0e16bdbe2108b4U, 0x3e1c4c363dbd73a7U, 0xbda108b43d6cd091U,
  0xbd46eca2bdd5221cU, 0xbdd5221cbdd0659eU, 0xbd3d73a7bcbd73a7U, 0xbcd0659e3d6cd091U,
  0xbcaa81b03dc6eca2U, 0x3e0bb87e3c635795U, 0x3d9c4c36bd3d73a7U, 0xbdbd73a7be2366f3U,
  0x3d2a81b0bd2108b4U, 0x3dc6eca23c978fb9U, 0xbb178fb93be35795U, 0xbd92d33b3d178fb9U,
  0xbb978fb9bd6cd091U, 0x3e6814133d049dc2U, 0xbd2108b43c178fb9U, 0x3d59de993dcba920U,
  0x3db3faabbb178fb9U, 0xbb978fb9bdecd091U, 0x3d0e16bdU, 0xbcaa81b0bd76498cU,
  0x3dd5221c3e095a3fU, 0x3e3b15683e423025U, 0x3df18d0e3dd9de99U, 0x3e25c5323e5e9b17U,
  0x3b978fb9bd46eca2U, 0x3d0e16bd00000000U, 0xbc849dc23dc23025U, 0x3e1eaa75bd46eca2U,
  0x3e2108b43e46eca2U, 0xbcbd73a73d9c4c36U, 0xbe049dc23d2a81b0U, 0x3b178fb9bcf6498cU,
  0x3dd5221cbc978fb9U, 0x3cbd73a73e65b5d4U, 0xbd2108b43df18d0eU, 0x3d7fc2883d635795U,
  0x3dffc28800000000U, 0xbcaa81b03daa81b0U, 0xbdaf3e2e3d049dc2U, 0x3e19edf83e25c532U,
  0x3be35795bd76498cU, 0x3dfb060a00000000U, 0x3d895a3f3da5c532U, 0xbd92d33b3e1c4c36U,
  0xbbe35795bd76498cU, 0x3d46eca2bd50659eU, 0xbd33faab3dd5221cU, 0x3e2f3e2ebcf6498cU,
  0x3e3fd1e63e5c3cd8U, 0x3e049dc2bc3d73a7U, 0x3e178fb9bd2a81b0U, 0x3e448e64bd2a81b0U,
  0x3dbd73a73e65b5d4U, 0x3e06fc003d635795U, 0xbcd0659ebde35795U, 0xbd46eca23e3658eaU,
  0x3da108b4bd59de99U, 0xbc978fb93e33faabU, 0xbd2a81b0bd049dc2U, 0x3e3658eabdd9de99U,
  0x3e65b5d43c635795U, 0x3de357953e5e9b17U, 0xbdb3faab3cf6498cU, 0x3da108b4bce35795U,
  0x3dd0659ebc178fb9U, 0x3e19edf83c978fb9U, 0x3decd0913d178fb9U, 0x3e55221c3df18d0eU,
  0x3daa81b03b178fb9U, 0x3e19edf800000000U, 0xbbe35795bcd0659eU, 0x3dd9de993d6cd091U,
  0x3dfb060abdc23025U, 0xbd50659e00000000U, 0x3e718d0e3e59de99U, 0xbd7fc2883d978fb9U,
  0x3e2366f3bdd0659eU, 0x3c178fb93d46eca2U, 0x3d0e16bd3d2a81b0U, 0x3d2a81b03cf6498cU,
  0xbd2108b43d895a3fU, 0x3e178fb93dfb060aU, 0x3dbd73a73cbd73a7U, 0x3d6357953da5c532U,
  0xbd50659ebcaa81b0U, 0x3de357953c178fb9U, 0x3c849dc2bc178fb9U, 0x3e06fc003c849dc2U,
  0x3dde9b17bd50659eU, 0xbd2108b4bbe35795U, 0x3dc230253dc23025U, 0x3d59de99bb978fb9U,
  0xbd6cd0913e3fd1e6U, 0x3cd0659ebd7fc288U, 0xbdc6eca2bd7fc288U, 0x3e2108b43dbd73a7U,
  0x3dfb060a3de35795U, 0x3d92d33b3e6a7252U, 0xbc178fb93e78a7cbU, 0x3d178fb93e023f83U,
  0xbd0e16bdbda108b4U, 0x3e023f83bd9c4c36U, 0xbdde9b173db8b729U, 0xbd2108b4bd978fb9U,
  0x3e38b729bd849dc2U, 0xbcd0659e3e049dc2U, 0x3d33faabbd46eca2U, 0xbc3d73a73d895a3fU,
  0xbb178fb93da5c532U, 0x3e8bb87ebdd5221cU, 0x3d6cd0913d635795U, 0xbce357953dbd73a7U,
  0x3d6cd0913d895a3fU, 0x3b178fb9be0bb87eU, 0x3e3d73a73e12d33bU, 0x3b978fb93ce35795U,
  0xbde814133e12d33bU, 0xbcf6498c3dfb060aU, 0x3db8b7293e06fc00U, 0x3e2108b43de35795U,
  0xbd0e16bd3e2f3e2eU, 0xbdecd0913e5c3cd8U, 0x3d849dc23decd091U, 0x3e52c3dd3e0bb87eU,
  0x3e91a41b3d2108b4U, 0xbda5c5323e5c3cd8U, 0x3dd5221c3cbd73a7U, 0x3b978fb9bd178fb9U,
  0x3e7d64493e2cdfefU, 0x3e7d64493dcba920U, 0x3e4ba9203daa81b0U, 0x3be357953e33faabU,
  0x3e895a3f3e19edf8U, 0x3d635795bd50659eU, 0xbd2a81b03df18d0eU, 0x3e319c6c3cd0659eU,
  0xbb178fb93ce35795U, 0xbc178fb9bdcba920U, 0x3caa81b0be0e16bdU, 0xbd895a3fbc635795U,
  0xbdc6eca23daf3e2eU, 0xbe12d33b3e19edf8U, 0xbdf6498c3d50659eU, 0xbe049dc2bd049dc2U,
  0xbdc6eca23d849dc2U, 0x3dc230253e12d33bU, 0x3c3d73a73c849dc2U, 0x3dc230253d2108b4U,
  0xbc635795be3d73a7U, 0xbdbd73a73d76498cU, 0x3e1eaa753da108b4U, 0x3c3d73a7bdbd73a7U,
  0xbdecd091bc178fb9U, 0x3e1eaa753d59de99U, 0xbdb8b729bdb8b729U, 0x3c6357953d2a81b0U,
  0xbd33faabbdf6498cU, 0x3d33faabbdde9b17U, 0x3d7fc2883be35795U, 0xbd3d73a7be1eaa75U,
  0xbdbd73a7bdcba920U, 0xbd9c4c36bdf18d0eU, 0x3da108b4bdd0659eU, 0xbe0e16bdbe448e64U,
  0xbe494ae13e0bb87eU, 0xbc849dc23e06fc00U, 0xbc978fb93be35795U, 0xbe178fb93daa81b0U,
  0x3d978fb9bce35795U, 0xbb178fb9bd33faabU, 0xbd895a3fbe2f3e2eU, 0x3e2108b4be0e16bdU,
  0xbde814133e12d33bU, 0xbd978fb93e12d33bU, 0x3d178fb9bdde9b17U, 0xbe25c5323d2a81b0U,
  0xbe3b1568bd2a81b0U, 0xbd2108b4bd33faabU, 0xbe55221c00000000U, 0xbd8e16bd3be35795U,
  0x3df6498cbe1eaa75U, 0x3d46eca2be1c4c36U, 0x3d8e16bdbd50659eU, 0xbcf6498cbdf18d0eU,
  0xbcbd73a7bd049dc2U, 0x3d46eca2bd46eca2U, 0x3d849dc23d76498cU, 0x3dc23025bda108b4U,
  0x3c178fb9bdd0659eU, 0xbd76498c3ce35795U, 0x3d2a81b03d92d33bU, 0xbdaf3e2ebd635795U,
  0xbd3d73a7U, 0xbe12d33bbdc23025U, 0xbdfb060abdc6eca2U, 0xbe178fb9bb978fb9U,
  0xbd178fb9bdc23025U, 0x3e12d33bbd59de99U, 0xbd2a81b03e12d33bU, 0xbd92d33bbde81413U,
  0xbe38b7293d33faabU, 0xbbe35795bc3d73a7U, 0xbbe35795be3d73a7U, 0xbd59de99bdd0659eU,
  0xbd8e16bd3d92d33bU, 0xbdf18d0ebc635795U, 0xbd6cd091be0bb87eU, 0xbe2cdfefbdfb060aU,
  0x3d50659ebdb3faabU, 0xbcbd73a73df18d0eU, 0xbce35795be423025U, 0xbe049dc2bd46eca2U,
  0xbd33faabbe319c6cU, 0xbe2a81b0bc849dc2U, 0x3ce357953db8b729U, 0x3d6cd0913d46eca2U,
  0xbd6357953b178fb9U, 0x3d0e16bd3d3d73a7U, 0xbe2108b4bdd9de99U, 0x3d978fb93e049dc2U,
  0xbda5c532be3658eaU, 0xbc849dc2bd76498cU, 0xbc178fb93e19edf8U, 0xbd59de99bd46eca2U,
  0xbd59de99be2108b4U, 0xbda108b4bcf6498cU, 0xbd2108b4be178fb9U, 0x3cbd73a7be282371U,
  0x3db3faab3e2a81b0U, 0x3de357953d178fb9U, 0xbd2a81b03caa81b0U, 0x3d59de99bc635795U,
  0xbe50659ebb178fb9U, 0xbdb3faabbbe35795U, 0xbe3d73a7bd895a3fU, 0x3be357953b978fb9U,
  0x3d92d33b3e023f83U, 0xbd3d73a73dd5221cU, 0xbde81413be4e075fU, 0x3d6cd0913d50659eU,
  0xbdd5221cbd46eca2U, 0x3df6498c3d6cd091U, 0xbd2108b4be5c3cd8U, 0xbe049dc23e095a3fU,
  0x3e15317abe836ea2U, 0xbd6357953d3d73a7U, 0x3df18d0ebd635795U, 0xbe57805b00000000U,
  0xbd0e16bd3d9c4c36U, 0xbd7fc2883c178fb9U, 0xbd9c4c363d50659eU, 0x3c3d73a7bbe35795U,
  0xbe635795be2108b4U, 0x3c635795bdd9de99U, 0x3e33faabbdb3faabU, 0xbe33faabbc849dc2U,
  0xbe849dc2be282371U, 0xbd59de99be1074fcU, 0xbdfb060abe4e075fU, 0xbe2a81b03c849dc2U,
  0xbe4e075f3e2a81b0U, 0x3cd0659e3df18d0eU, 0x3cd0659e3dfb060aU, 0xbd978fb9bc635795U,
  0x3e095a3fU, 0x3d2108b4bdaa81b0U, 0xbd50659ebdcba920U, 0x3d59de993cf6498cU,
  0xbbe357953e0bb87eU, 0x3d2a81b03dd5221cU, 0xbdbd73a73c849dc2U, 0xbe3d73a7bdecd091U,
  0xbdffc288bcaa81b0U, 0x3d76498c3e178fb9U, 0x3d8e16bd3d50659eU, 0xbe023f83bd2108b4U,
  0x3e0e16bdbde35795U, 0xbde35795bd46eca2U, 0xbd178fb9bd50659eU, 0xbd59de99bcd0659eU,
  0xbe282371bdecd091U, 0x3c849dc2be2a81b0U, 0xbe0bb87e3d76498cU, 0xbd2108b43dde9b17U,
  0xbe1c4c363d2a81b0U, 0x3e2cdfefbdecd091U, 0x3cf6498cbb978fb9U, 0xbdc230253d46eca2U,
  0x3ce357953d6cd091U, 0xbd3d73a7be095a3fU, 0xbdb3faabbdecd091U, 0xbcaa81b03b978fb9U,
  0x3d46eca2bd46eca2U, 0x3d178fb9bd8e16bdU, 0x3d59de993de81413U, 0x3d2a81b03d7fc288U,
  0xbc6357953b178fb9U, 0xbdf6498cbe494ae1U, 0x3c849dc2be06fc00U, 0x3dffc288bd049dc2U,
  0x3d635795bd2108b4U, 0xbda108b43d2a81b0U, 0xbe0e16bd3c635795U, 0xbe319c6cbe2a81b0U,
  0x3d7fc288bdb8b729U, 0xbd92d33b3dcba920U, 0x3d59de99bd2a81b0U, 0xbdde9b17bc978fb9U,
  0x3e38b729bda5c532U, 0x3d2108b4bdffc288U, 0x3d92d33bbcbd73a7U, 0xbd76498cbd59de99U,
  0xbdc6eca23daf3e2eU, 0x3d3d73a7bd59de99U, 0xbde81413bdaf3e2eU, 0xbe049dc23d978fb9U,
  0x3c635795bd76498cU, 0x3e0bb87e3cd0659eU, 0xbc178fb93dd5221cU, 0xbd6cd091be1eaa75U,
  0xbc978fb93d3d73a7U, 0xbe12d33bbcbd73a7U, 0x3d2108b4be1c4c36U, 0xbd635795bdf6498cU,
  0xbdaa81b0bd2a81b0U, 0xbd2108b43d33faabU, 0x3e095a3fbd3d73a7U, 0xbe2108b43d50659eU,
  0x3be35795bdb3faabU, 0xbdf6498cbdb3faabU, 0xbdbd73a7bdaa81b0U, 0x3d9c4c36bdcba920U,
  0xbd8e16bd3d92d33bU, 0xbd50659e3d635795U, 0x3c6357953d0e16bdU, 0x3d635795bdf6498cU,
  0x3d635795bde81413U, 0x3d46eca23e319c6cU, 0xbe023f8300000000U, 0xbdcba9203e1eaa75U,
  0x3e2f3e2e3daa81b0U, 0xbdffc288be423025U, 0x3c849dc23decd091U, 0x3d2a81b0bdf18d0eU,
  0xbcf6498c3d9c4c36U, 0x3ce35795bdfb060aU, 0xbbe357953c3d73a7U, 0xbe049dc2bd0e16bdU,
  0x3caa81b0bce35795U, 0x3dd9de993b178fb9U, 0xbd92d33b3c3d73a7U, 0xbd0e16bdbe1eaa75U,
  0xbe2f3e2e3da5c532U, 0x3be357953d6cd091U, 0x3cd0659ebe1c4c36U, 0xbdd5221cbcaa81b0U,
  0xbcbd73a700000000U, 0x3dc6eca2bdaf3e2eU, 0x3c849dc2bdaf3e2eU, 0xbd9c4c36bcd0659eU,
  0xbdffc288bdd9de99U, 0xbd9c4c36bd92d33bU, 0xbe5c3cd83c178fb9U, 0x3e15317abc978fb9U,
  0xbc3d73a7bdc6eca2U, 0xbb978fb93e095a3fU, 0xbe494ae1bdbd73a7U, 0xbe0e16bdbe06fc00U,
  0x3cf6498c3d33faabU, 0x3dd0659e3e25c532U, 0xbdc230253d2108b4U, 0x3b978fb93d2a81b0U,
  0x3d50659ebd0e16bdU, 0x3da108b4be178fb9U, 0x3d6cd0913dd9de99U, 0xbd92d33b3c849dc2U,
  0xbe319c6c3c978fb9U, 0x3dcba920bcaa81b0U, 0x3be35795bd76498cU, 0xbce357953dc23025U,
  0xbe2366f33d0e16bdU, 0x3d895a3f00000000U, 0x3b178fb93e06fc00U, 0xbd3d73a7bd7fc288U,
  0x3be357953ce35795U, 0xbcaa81b0be12d33bU, 0x3c978fb93d33faabU, 0xbc849dc2bde81413U,
  0xbcd0659e3b978fb9U, 0x3dfb060a3d0e16bdU, 0x3e1c4c363e095a3fU, 0xbd92d33b3b978fb9U,
  0xbdb3faab3de81413U, 0x3cd0659ebd7fc288U, 0xbdd5221c3cbd73a7U, 0x3dfb060a3d9c4c36U,
  0x3d978fb9bdc6eca2U, 0x3d59de99bdffc288U, 0xbd2108b4bc178fb9U, 0x3d0e16bdbd2a81b0U,
  0xbd2108b43d635795U, 0x3cf6498c3d6cd091U, 0x3d049dc2bd59de99U, 0xbe049dc2be06fc00U,
  0x3dd5221cbdaa81b0U, 0xbdde9b17bd50659eU, 0x3d0e16bd3cf6498cU, 0xbc6357953db3faabU,
  0x3dd9de993dc6eca2U, 0xbd3d73a7be049dc2U, 0x3df6498cbd92d33bU, 0xbd635795bc978fb9U,
  0xbcbd73a7bd895a3fU, 0xbd6cd0913c178fb9U, 0xbcd0659ebd8e16bdU, 0xbdbd73a7bd46eca2U,
  0x3b178fb93d178fb9U, 0xbdf6498c3cf6498cU, 0xbd6cd0913d9c4c36U, 0xbdbd73a73daa81b0U,
  0xbd33faabbdb3faabU, 0x3d895a3fbce35795U, 0x3d2108b4be023f83U, 0x3d59de99bda5c532U,
  0x3dd5221c3d8e16bdU, 0x3d0e16bdbdf18d0eU, 0x3dde9b17bd50659eU, 0xbe049dc2be06fc00U,
  0xbdde9b17bdffc288U, 0xbdcba920bd0e16bdU, 0xbd92d33b3da108b4U, 0x3da108b4bd92d33bU,
  0xbda5c532bd33faabU, 0xbb178fb9bdc6eca2U, 0xbd7fc2883da108b4U, 0xbdffc2883d59de99U,
  0xbdecd091bdffc288U, 0xbdc6eca2bdfb060aU, 0xbe023f833dd5221cU, 0x3dbd73a7bdde9b17U,
  0xbd849dc23dbd73a7U, 0x3c178fb9bd978fb9U, 0x3dc230253c178fb9U, 0x3c3d73a73cbd73a7U,
  0xbdaa81b03dcba920U, 0xbd6cd0913d76498cU, 0xbdf18d0e3d33faabU, 0x3dd9de99bd33faabU,
  0xbde35795bdf18d0eU, 0xbd849dc23d33faabU, 0x3d8e16bdbdaf3e2eU, 0xbce35795bdcba920U,
  0xbda108b43dc23025U, 0x3c849dc2bdb8b729U, 0x3d33faabbd0e16bdU, 0xbd0e16bd3daa81b0U,
  0xbcf6498c3ce35795U, 0xbdc6eca2bc978fb9U, 0xbc849dc23b978fb9U, 0xbd76498cbdd0659eU,
  0x3b978fb93d92d33bU, 0x3d46eca23dbd73a7U, 0x3caa81b03d7fc288U, 0x3df18d0ebd33faabU,
  0x3c978fb9bd2108b4U, 0xbcbd73a73d895a3fU, 0xbc3d73a7bd2108b4U, 0xbd59de993dc6eca2U,
  0xbd2a81b03db8b729U, 0x3c178fb9bd8e16bdU, 0x3daa81b0bde35795U, 0x3caa81b0bdc6eca2U,
  0xbc6357953df6498cU, 0xbd2a81b03b178fb9U, 0x3c978fb93d50659eU, 0xbb178fb93e023f83U,
  0xbd59de993dc6eca2U, 0x3d978fb93d178fb9U, 0xbdaf3e2ebdaa81b0U, 0x3c978fb9bda5c532U,
  0xbdf6498cbda5c532U, 0xbcaa81b0U, 0x3d33faabbd46eca2U, 0xbd92d33bbdb3faabU,
  0xbd33faabbde35795U, 0xbdc23025bdc6eca2U, 0x3dde9b173c978fb9U, 0x3d0e16bdbdaa81b0U,
  0x3d50659e3dd9de99U, 0x3d2108b4bce35795U, 0x3da5c532bda5c532U, 0x3b978fb9be049dc2U,
  0x3dfb060abda108b4U, 0xbd895a3fbdf18d0eU, 0xbdf6498cbd7fc288U, 0xbdde9b173c635795U,
  0xbd8e16bdbd59de99U, 0xbdffc2883d2a81b0U, 0x3c978fb9bdd9de99U, 0xbe023f833de35795U,
  0x3df18d0e3de35795U, 0xbcf6498cbdc6eca2U, 0x3dde9b173c978fb9U, 0x3cd0659ebd978fb9U,
  0x3d46eca23ce35795U, 0x3d8e16bdbd2108b4U, 0xbde35795bc635795U, 0x3d049dc2bc178fb9U,
  0xbc3d73a7bcd0659eU, 0xbdaf3e2e3c978fb9U, 0x3d6cd091bd46eca2U, 0x3d8e16bdbd46eca2U,
  0x3ce357953d9c4c36U, 0x3dfb060abd8e16bdU, 0xbda108b4bbe35795U, 0x3dfb060abd33faabU,
  0xbd76498cbc978fb9U, 0xbc3d73a73c978fb9U, 0xbd50659e3dcba920U, 0xbdc6eca23caa81b0U,
  0x3c635795bd849dc2U, 0x3d978fb93daf3e2eU, 0x3e38b729bcf6498cU, 0x3d0e16bd3e33faabU,
  0xbd3d73a73daf3e2eU, 0xbd46eca2bc3d73a7U, 0x3ce357953e095a3fU, 0x3e1074fc3e3fd1e6U,
  0x3dc6eca23e049dc2U, 0xbd2a81b03cf6498cU, 0x3e2a81b03e25c532U, 0x3e1074fc3d50659eU,
  0xbe06fc00bcaa81b0U, 0x3d33faab3d9c4c36U, 0x3cf6498c3de35795U, 0x3d7fc2883e2366f3U,
  0xbd049dc23e1c4c36U, 0xbd2108b4bc978fb9U, 0xbd895a3fbb178fb9U, 0x3d895a3fbb178fb9U,
  0x3da5c5323dfb060aU, 0xbe095a3f3d6cd091U, 0x3db8b729bdc23025U, 0xbd2a81b03dd9de99U,
  0x3daa81b03d2108b4U, 0x3cd0659e3cbd73a7U, 0x3dde9b173e049dc2U, 0x3e2f3e2e3be35795U,
  0x3e46eca2bd46eca2U, 0x3dd5221cbb978fb9U, 0x3dc6eca23d59de99U, 0x3e38b7293e0bb87eU,
  0x3cbd73a73daa81b0U, 0x3e049dc23d8e16bdU, 0x3c849dc23dffc288U, 0xbd895a3f3c978fb9U,
  0xbd50659ebda5c532U, 0x3e1c4c36bda108b4U, 0x3be357953d76498cU, 0x3d049dc2bd049dc2U,
  0x3e2a81b03e3b1568U, 0xbda108b43d9c4c36U, 0x3c635795bdb3faabU, 0x3c849dc23cf6498cU,
  0xbe12d33b3da5c532U, 0x3c978fb93cf6498cU, 0x3e023f83bc178fb9U, 0x3d978fb93e1eaa75U,
  0x3e095a3f3d76498cU, 0x3da5c5323e319c6cU, 0x3c849dc2bd92d33bU, 0xbd0e16bd3dc6eca2U,
  0x3b178fb93e12d33bU, 0xbdf18d0e3e282371U, 0xbd2a81b0bdd0659eU, 0x3da5c5323dcba920U,
  0x3d59de99U, 0x3d2108b43e2a81b0U, 0x3db8b7293dd0659eU, 0x3df6498c3b178fb9U,
  0x3d0e16bdbd7fc288U, 0xbd76498c3dbd73a7U, 0xbdaf3e2ebd50659eU, 0x3d895a3fbb978fb9U,
  0x3e06fc00U, 0x3daa81b0bc978fb9U, 0xbd0e16bdbd178fb9U, 0x3de357953b178fb9U,
  0x3d33faab3de81413U, 0x3d895a3fbc635795U, 0x3e4230253d895a3fU, 0x3e4ba9203e2366f3U,
  0x3d635795bd7fc288U, 0xbdf6498cbdffc288U, 0x3e2366f3bd895a3fU, 0x3b978fb93d178fb9U,
  0xbdc6eca2bd3d73a7U, 0x3dd9de99bc3d73a7U, 0x3c178fb9bc635795U, 0xbd6cd091bce35795U,
  0x3df6498c3dc6eca2U, 0x3d6cd0913dfb060aU, 0x3d2a81b03decd091U, 0xbd50659e3c978fb9U,
  0xbc6357953c849dc2U, 0x3b978fb93d7fc288U, 0x3daa81b03c978fb9U, 0x3c3d73a73de35795U,
  0x3d7fc288bc849dc2U, 0x3c849dc23e2366f3U, 0xbd92d33b3dfb060aU, 0x3daa81b03d0e16bdU,
  0xbcbd73a73dfb060aU, 0xbdaf3e2ebd978fb9U, 0x3c178fb9bdc6eca2U, 0x3daa81b03d92d33bU,
  0xbb978fb93d049dc2U, 0x3b178fb93e0bb87eU, 0x3decd0913dd0659eU, 0x3d9c4c363e3b1568U,
  0xbcd0659e3daf3e2eU, 0x3e59de993d2a81b0U, 0x3e494ae1bc978fb9U, 0x3c978fb93e2108b4U,
  0x3decd0913de81413U, 0x3d9c4c363dcba920U, 0x3e1074fc3e423025U, 0x3d895a3f3d92d33bU,
  0xbe12d33b3e59de99U, 0xbb978fb93dcba920U, 0x3d2a81b0bc849dc2U, 0x3e095a3f3d92d33bU,
  0x3d76498cbbe35795U, 0xbb178fb93d849dc2U, 0x3dd0659ebc635795U, 0xbbe357953caa81b0U,
  0x3de357953e178fb9U, 0xbdfb060a3de35795U, 0xbdfb060a3decd091U, 0x3e38b7293e095a3fU,
  0x3d9c4c363caa81b0U, 0xbc178fb93e049dc2U, 0x3e319c6c3d635795U, 0x3da108b43e1c4c36U,
  0x3e7d64493d92d33bU, 0xbdb8b7293c849dc2U, 0x3c178fb9bd92d33bU, 0x3e2a81b03caa81b0U,
  0xbd635795bd9c4c36U, 0x3cd0659ebda5c532U, 0xbdd9de99bb978fb9U, 0xbce357953dd0659eU,
  0xbcbd73a73dd0659eU, 0xbd0e16bdbd978fb9U, 0xbdf6498c3cbd73a7U, 0xbd2108b4bc178fb9U,
  0x3dc230253d7fc288U, 0xbdde9b17bc978fb9U, 0xbd50659ebce35795U, 0x3d895a3fbd33faabU,
  0x3d92d33b3d6cd091U, 0x3daf3e2e3cf6498cU, 0xbcaa81b03b178fb9U, 0xbc978fb93de35795U,
  0xbdaf3e2ebdffc288U, 0x3d0e16bd3daa81b0U, 0x3d46eca23db8b729U, 0xbc6357953daa81b0U,
  0xbdd9de99be095a3fU, 0x3b978fb93dd5221cU, 0xbcaa81b0be095a3fU, 0xbd3d73a73c635795U,
  0xbcaa81b03d9c4c36U, 0x3d3d73a7bcf6498cU, 0xbd50659ebd895a3fU, 0x3d76498cbce35795U,
  0xbd8e16bd3d849dc2U, 0x3d049dc2bdb8b729U, 0xbdbd73a7bcd0659eU, 0xbd59de99bc849dc2U,
  0x3da108b4bd895a3fU, 0x3dc6eca2be095a3fU, 0xbd6cd091bbe35795U, 0xbd2a81b0bd178fb9U,
  0x3dd9de99be06fc00U, 0xbc635795bdaa81b0U, 0xbe095a3fbcd0659eU, 0x3cbd73a7bd0e16bdU,
  0xbdaa81b03d2108b4U, 0x3df18d0e3cf6498cU, 0xbdbd73a7bbe35795U, 0xbdf6498c3c635795U,
  0xbd59de99bd59de99U, 0xbd92d33bbdfb060aU, 0xbdffc2883d92d33bU, 0xbda5c532bc635795U,
  0xbdc23025bde81413U, 0xbda5c5323dd5221cU, 0x3b978fb93d3d73a7U, 0xbd9c4c36bdd0659eU,
  0xbdaa81b0bcaa81b0U, 0xbd895a3fU, 0xbdcba920bd978fb9U, 0x3de81413bd0e16bdU,
  0x3de81413be06fc00U, 0x3d76498cbd178fb9U, 0x3d46eca23d2a81b0U, 0xbce357953d2a81b0U,
  0xbdde9b173de81413U, 0xbd978fb9bc178fb9U, 0x3dcba9203dd9de99U, 0x3c6357953d978fb9U,
  0xbe095a3fbd3d73a7U, 0x3be357953ce35795U, 0xbcd0659e3da5c532U, 0xbdde9b17bd92d33bU,
  0x3d178fb9bd0e16bdU, 0x3d76498c3daa81b0U, 0x3da108b4bdde9b17U, 0xbc849dc2bdaa81b0U,
  0x3de81413bdfb060aU, 0xbd2108b43d0e16bdU, 0xbcf6498c3d33faabU, 0xbd76498c3de81413U,
  0x3caa81b0bd8e16bdU, 0x3d0e16bdbde35795U, 0x3d0e16bd3de35795U, 0xbd92d33bbdaa81b0U,
  0xbd9c4c36bde35795U, 0x3daa81b0bd59de99U, 0x3c849dc23d9c4c36U, 0x3d6357953db8b729U,
  0x3decd091bd76498cU, 0xbde35795bc635795U, 0x3df6498c3d978fb9U, 0xbdb3faabbe0bb87eU,
  0xbb178fb93b178fb9U, 0xbdd9de99bdbd73a7U, 0x3d2a81b03d2a81b0U, 0x3d76498c3d76498cU,
  0xbc178fb93dc23025U, 0xbdaa81b0be095a3fU, 0x3d46eca23d6cd091U, 0x3d50659ebd46eca2U,
  0xbdc23025be023f83U, 0xbd635795bdaf3e2eU, 0xbdd5221cbdb8b729U, 0x3b178fb93db8b729U,
  0xbcbd73a7bdb3faabU, 0xbdecd091bd178fb9U, 0xbe06fc003d92d33bU, 0xbd3d73a73df18d0eU,
  0xbe095a3fbd7fc288U, 0xbe023f83bd2a81b0U, 0x3d0e16bd3dd5221cU, 0x3da5c532bc849dc2U,
  0xbd50659ebcf6498cU, 0xbb978fb9be023f83U, 0x3d849dc200000000U, 0x3d7fc2883de35795U,
  0xbdbd73a73db8b729U, 0x3c3d73a7bd3d73a7U, 0xbdde9b17bdecd091U, 0x3dde9b173d178fb9U,
  0xbdc6eca2bd635795U, 0xbdb3faab3d895a3fU, 0x3be357953d178fb9U, 0xbdd5221c3d3d73a7U,
  0x3b978fb93dd9de99U, 0x3dd9de99be0bb87eU, 0xbe06fc003d3d73a7U, 0x3d895a3f3c978fb9U,
  0x3da5c532bdc6eca2U, 0x3d59de99bd895a3fU, 0xbdfb060abd8e16bdU, 0xbe0bb87eU,
  0x3decd0913d46eca2U, 0x3d9c4c36bd3d73a7U, 0x3dde9b173dfb060aU, 0xbd978fb93d8e16bdU,
  0x3c6357953db8b729U, 0x3cd0659ebc635795U, 0x3c6357953d895a3fU, 0x3d7fc288bd2108b4U,
  0x3d2a81b03d2a81b0U, 0xbda108b43daf3e2eU, 0x3e1074fc3d2a81b0U, 0x3dcba9203ce35795U,
  0x3de357953db8b729U, 0x3dd9de99bd46eca2U, 0x3d50659ebd3d73a7U, 0x3d978fb93d895a3fU,
  0x3cf6498c3e06fc00U, 0xbd59de993e2cdfefU, 0xbd6cd091bc635795U, 0x3d46eca23decd091U,
  0x3e1eaa753e46eca2U, 0x3da108b43e2f3e2eU, 0xbda108b4bd7fc288U, 0x3c3d73a7bd50659eU,
  0x3de814133e25c532U, 0xbd2108b43e1c4c36U, 0x3d895a3f3cf6498cU, 0xbd59de993dd9de99U,
  0x3d049dc2bb178fb9U, 0xbd978fb93e1eaa75U, 0xbd2a81b0bdaf3e2eU, 0x3e319c6c3dffc288U,
  0x3e178fb93d178fb9U, 0xbd33faabbd2a81b0U, 0x3cf6498cbd46eca2U, 0xbdb8b7293dde9b17U,
  0xbc635795bdfb060aU, 0xbd8e16bdbd76498cU, 0xbd76498c3dd5221cU, 0xbd049dc2bd049dc2U,
  0x3e12d33b3d92d33bU, 0xbdecd0913d33faabU, 0x3caa81b0bd76498cU, 0x3da108b4bd6cd091U,
  0xbdc6eca23db3faabU, 0x3db8b7293dd0659eU, 0x3e15317abdecd091U, 0x3c849dc23d8e16bdU,
  0x3da108b4bb978fb9U, 0x3dd0659ebd895a3fU, 0x3e0e16bd3dde9b17U, 0xbd0e16bdbdc6eca2U,
  0xbd33faab3dde9b17U, 0xbd049dc23e12d33bU, 0xbd46eca23db3faabU, 0x3e12d33b3d895a3fU,
  0x3dc6eca2bbe35795U, 0xbd0e16bd3dd0659eU, 0x3d0e16bd3e4ba920U, 0x3da108b43dc6eca2U,
  0xbb178fb93d59de99U, 0xbd6357953c849dc2U, 0x3c849dc2bc178fb9U, 0xbd2a81b03dbd73a7U,
  0x3e2108b43b178fb9U, 0x3ce35795bb978fb9U, 0xbcaa81b03dcba920U, 0x3cf6498cbbe35795U,
  0x3e1eaa753dd5221cU, 0x3d0e16bd3b178fb9U, 0x3e4ba9203d2108b4U, 0xbcaa81b03e19edf8U,
  0xbd6cd091bd849dc2U, 0xbcf6498cbdffc288U, 0x3dc230253e25c532U, 0x3e19edf83d76498cU,
  0xbdaf3e2e3d50659eU, 0xbb978fb9bd59de99U, 0xbdcba920bb978fb9U, 0x3cf6498cbd049dc2U,
  0x3dc230253d6cd091U, 0xbe023f833d049dc2U, 0x3da108b43e25c532U, 0xbc178fb93c635795U,
  0x3dffc288bd50659eU, 0xbdde9b173e023f83U, 0xbd3d73a73dfb060aU, 0xbd46eca23d849dc2U,
  0x3e12d33b3de35795U, 0xbd178fb93e494ae1U, 0x3e1074fc3d76498cU, 0xbcf6498c3ce35795U,
  0xbd76498c3d33faabU, 0xbd7fc2883d50659eU, 0x3dd5221c3be35795U, 0xbd50659e3c3d73a7U,
  0x3e2823713db3faabU, 0x3db3faabbb978fb9U, 0x3e12d33b3cd0659eU, 0xbdb8b7293e5e9b17U,
  0x3d50659e3b178fb9U, 0x3e12d33b3dfb060aU, 0x3d2108b43e06fc00U, 0x3e38b7293ce35795U,
  0x3caa81b03e4ba920U, 0xbc3d73a7bcbd73a7U, 0x3e3658eabb178fb9U, 0x3e55221cbd7fc288U,
  0xbd3d73a73e1c4c36U, 0x3d049dc23dc23025U, 0xbcd0659e3e023f83U, 0x3c3d73a73dffc288U,
  0xbc978fb93e494ae1U, 0x3dbd73a73e282371U, 0x3e06fc003e15317aU, 0x3df6498c3d7fc288U,
  0x3df18d0e3d9c4c36U, 0xbe06fc003e60f956U, 0xbdaf3e2ebdbd73a7U, 0x3d2108b43d0e16bdU,
  0x3d895a3fbd849dc2U, 0x3d2a81b03e282371U, 0x3c978fb9bc978fb9U, 0x3dcba9203e2366f3U,
  0x3e6814133d9c4c36U, 0xbb178fb9bd92d33bU, 0x3cd0659ebcbd73a7U, 0x3d33faab3dd5221cU,
  0xbcf6498c3e12d33bU, 0xbd049dc2bd9c4c36U, 0xbdaf3e2ebdd9de99U, 0x3e095a3fbd635795U,
  0xbe1c4c363df6498cU, 0xbe25c532bd2a81b0U, 0xbbe35795bc978fb9U, 0x3ce35795bd2a81b0U,
  0xbe178fb9bb178fb9U, 0x3e1074fc3e1c4c36U, 0xbe3b1568bb178fb9U, 0xbe15317a3c978fb9U,
  0x3d178fb9bda5c532U, 0x3cd0659e3d178fb9U, 0x3d2a81b0bd3d73a7U, 0x3d59de99be2108b4U,
  0xbe494ae13daa81b0U, 0x3e023f833d635795U, 0xbc849dc2be1074fcU, 0x3daa81b03e0e16bdU,
  0xbcbd73a7be1c4c36U, 0x3e1074fcbd50659eU, 0x3d2a81b0bd0e16bdU, 0xbda5c532bdb3faabU,
  0x3be35795be494ae1U, 0xbc978fb9bd50659eU, 0xbd76498cbde35795U, 0x3d2a81b0bd7fc288U,
  0xbc849dc23e023f83U, 0xbda5c532bd178fb9U, 0x3e06fc00bc849dc2U, 0xbe095a3f3d2a81b0U,
  0xbd0e16bd3dc23025U, 0xbd33faabbd59de99U, 0xbe0e16bdbdb8b729U, 0x3e023f83be2a81b0U,
  0xbe448e64bd2108b4U, 0xbe1eaa753decd091U, 0xbe06fc00be1074fcU, 0xbda108b4bdde9b17U,
  0x3d33faabbd46eca2U, 0x3c6357953e15317aU, 0xbd049dc2bdb8b729U, 0xbd049dc23e15317aU,
  0x3e2108b43c3d73a7U, 0x3cbd73a7bd895a3fU, 0x3d76498c3ce35795U, 0xbde35795bdcba920U,
  0x3d50659e3d635795U, 0xbd76498c3d8e16bdU, 0xbd76498c3dc23025U, 0xbd6357953d46eca2U,
  0xbe46eca2bde81413U, 0x3e2108b43d2a81b0U, 0xbd7fc288bcbd73a7U, 0xbdd9de99be3b1568U,
  0xbd635795be178fb9U, 0xbb178fb9be023f83U, 0x3d46eca2bc3d73a7U, 0x3d2a81b03d6cd091U,
  0xbe1074fcbdb3faabU, 0x3d50659e3da5c532U, 0x3e1eaa75bb978fb9U, 0xbb978fb9bdc23025U,
  0x3c978fb9bbe35795U, 0xbd178fb9be2a81b0U, 0xbd76498cbcaa81b0U, 0xbdaf3e2ebd33faabU,
  0xbd6357953dbd73a7U, 0xbc3d73a7bc178fb9U, 0xbd635795bd2108b4U, 0xbde81413bda5c532U,
  0xbcaa81b03c635795U, 0x3be35795bd049dc2U, 0xbe15317abdaa81b0U, 0x3d76498cbd33faabU,
  0x3e1eaa75be38b729U, 0x3cbd73a7U, 0x3dbd73a73d895a3fU, 0xbdcba9203c3d73a7U,
  0xbd895a3fbe319c6cU, 0x3da108b4bdfb060aU, 0x3d0e16bd3daa81b0U, 0x3db8b7293da5c532U,
  0x3da5c532bd7fc288U, 0x3d33faab3dbd73a7U, 0xbdc6eca23d9c4c36U, 0x3d59de99be178fb9U,
  0x3d049dc23c978fb9U, 0xbcbd73a7be2366f3U, 0xbdf6498cbd8e16bdU, 0xbd76498cbe095a3fU,
  0x3d8e16bd3e06fc00U, 0x3dbd73a7bd895a3fU, 0x3e1eaa75bd895a3fU, 0xbc849dc2bd92d33bU,
  0xbd6cd091bd92d33bU, 0xbd635795bda5c532U, 0xbde81413be319c6cU, 0xbd8e16bdbe1c4c36U,
  0xbd46eca23e25c532U, 0xbc6357953e2f3e2eU, 0xbe1eaa753d50659eU, 0xbd0e16bdbcd0659eU,
  0xbd895a3fbe2cdfefU, 0x3e1074fc3e2cdfefU, 0xbe38b729be60f956U, 0xbe19edf83d7fc288U,
  0x3daa81b0bce35795U, 0xbe023f833da5c532U, 0x3d33faabbd178fb9U, 0xbdaf3e2e3d049dc2U,
  0xbe2a81b03c849dc2U, 0x3c3d73a7bdaa81b0U, 0x3c978fb9bd9c4c36U, 0xbd8e16bd3daf3e2eU,
  0xbe1eaa75bc178fb9U, 0x3dc6eca2bd978fb9U, 0x3c3d73a73e06fc00U, 0xbe049dc2be2366f3U,
  0xbd178fb9bdde9b17U, 0xbe15317abc849dc2U, 0x3d635795bdde9b17U, 0xbe50659e3be35795U,
  0xbc178fb93e095a3fU, 0x3e319c6c3c3d73a7U, 0x3dd0659e3d3d73a7U, 0x3d8e16bdbdbd73a7U,
  0x3d635795bd59de99U, 0x3cbd73a73da5c532U, 0x3dd5221c3ce35795U, 0xbd6357953d978fb9U,
  0xbd8e16bd3dc6eca2U, 0x3caa81b0bcf6498cU, 0xbd7fc2883dc23025U, 0xbd33faab3da108b4U,
  0xbdb3faab3d6cd091U, 0x3b978fb9bdaa81b0U, 0x3d2108b4bbe35795U, 0xbdffc288bd6cd091U,
  0xbd2a81b0bd59de99U, 0x3d895a3fbd0e16bdU, 0xbe0e16bdbd3d73a7U, 0xbbe35795bd849dc2U,
  0x3d33faabbcd0659eU, 0xbd178fb93c178fb9U, 0xbd33faab3d978fb9U, 0xbd33faab3db8b729U,
  0xbcd0659e3c635795U, 0x3d2108b4bdc23025U, 0x3b178fb9bd50659eU, 0xbd76498cbd978fb9U,
  0x3d59de99U, 0xbd0e16bd3c178fb9U, 0x3d895a3f3cd0659eU, 0xbd9c4c363d46eca2U,
  0x3b978fb9bdaf3e2eU, 0x3c6357953d849dc2U, 0xbd3d73a73caa81b0U, 0x3d7fc288bda5c532U,
  0xbd2108b4bd0e16bdU, 0x3d978fb9bd849dc2U, 0xbdaf3e2e00000000U, 0xbb178fb93d895a3fU,
  0xbd178fb9be15317aU, 0xbdd5221cbdfb060aU, 0xbc3d73a73dc23025U, 0xbd46eca23d3d73a7U,
  0xbd8e16bd3dcba920U, 0x3dc23025bb178fb9U, 0xbe0e16bd3d33faabU, 0xbde35795bdaa81b0U,
  0xbc978fb93cd0659eU, 0xbda5c532bdb3faabU, 0xbb978fb9bcbd73a7U, 0xbcf6498cU,
  0xbcd0659ebcbd73a7U, 0xbc3d73a7bcaa81b0U, 0xbb978fb9be095a3fU, 0x3c849dc23dd0659eU,
  0x3d9c4c36bc178fb9U, 0xbc849dc23d3d73a7U, 0x3dc6eca2bd50659eU, 0x3de81413bd6cd091U,
  0x3d6cd091bd2108b4U, 0xbd6cd0913cbd73a7U, 0xbd978fb9bcbd73a7U, 0x3d2a81b03dbd73a7U,
  0xbc3d73a73c178fb9U, 0xbdfb060abdf6498cU, 0xbd849dc23cbd73a7U, 0xbe1074fcbdc6eca2U,
  0xbdc6eca23dd9de99U, 0x3da5c532bcf6498cU, 0xbd76498c3d6cd091U, 0x3db3faabbd46eca2U,
  0xbdfb060a3db3faabU, 0xbcbd73a7bde35795U, 0x3d6cd091bdfb060aU, 0x3c849dc2bdaa81b0U,
  0xbd2108b4bdd5221cU, 0x3d2a81b03dd9de99U, 0xbbe35795bd0e16bdU, 0x3d33faabbd978fb9U,
  0x3c3d73a7bd978fb9U, 0x3d895a3fbdd5221cU, 0xbdf18d0e3d92d33bU, 0x3b178fb93d0e16bdU,
  0xbb178fb93d178fb9U, 0xbdaf3e2ebdc23025U, 0x3cbd73a73d33faabU, 0x3d635795bdb8b729U,
  0x3da5c532bd3d73a7U, 0xbd7fc2883d978fb9U, 0x3d33faabbd59de99U, 0xbe06fc00bdf18d0eU,
  0xbd59de99bdc6eca2U, 0x3dd5221cbe1074fcU, 0xbd049dc23d2a81b0U, 0xbd46eca2be049dc2U,
  0x3da5c5323dcba920U, 0xbdd0659ebb978fb9U, 0xbc635795bdc6eca2U, 0x3c849dc2bd178fb9U,
  0xbd635795bdc6eca2U, 0x3d76498cbcf6498cU, 0xbd7fc288bd46eca2U, 0xbdecd0913db3faabU,
  0xbd3d73a7bbe35795U, 0xbce357953d2108b4U, 0xbdaa81b03c178fb9U, 0xbda5c532bd049dc2U,
  0xbd9c4c36bd33faabU, 0xbdde9b17bb178fb9U, 0x3d7fc2883db3faabU, 0xbda5c532U,
  0x3c3d73a7bbe35795U, 0x3decd091bbe35795U, 0xbdbd73a7bd46eca2U, 0xbd59de99bdde9b17U,
  0x3de357953dde9b17U, 0x3d7fc288bd6cd091U, 0x3d6cd0913d849dc2U, 0x3caa81b03dde9b17U,
  0xbb178fb93dcba920U, 0xbcbd73a73d7fc288U, 0x3d92d33b3d9c4c36U, 0xbc978fb9bd59de99U,
  0x3da108b4bdb3faabU, 0x3dcba920bce35795U, 0x3c3d73a73d46eca2U, 0x3ce35795bdecd091U,
  0xbd049dc2be1074fcU, 0xbdecd091U, 0x3d9c4c36bcd0659eU, 0xbda108b4bd0e16bdU,
  0x3e33faab3cf6498cU, 0xbcf6498c3db3faabU, 0x3daf3e2ebd178fb9U, 0x3cf6498c3e319c6cU,
  0x3e33faabbbe35795U, 0x3be357953be35795U, 0x3dd9de993e5c3cd8U, 0x3e6357953e0bb87eU,
  0xbb178fb93dd0659eU, 0x3d92d33bbdc23025U, 0x3e65b5d4U, 0x3da108b4bd2a81b0U,
  0xbdaf3e2e3e12d33bU, 0x3d33faab3e3658eaU, 0xbd849dc2bde81413U, 0xbc978fb93cf6498cU,
  0x3cf6498c3d3d73a7U, 0xbd8e16bd3decd091U, 0x3e19edf83decd091U, 0x3c3d73a73d50659eU,
  0x3de35795bce35795U, 0x3d50659ebc978fb9U, 0x3d9c4c36bd33faabU, 0x3e55221c3de81413U,
  0xbd0e16bd3e3b1568U, 0x3e3d73a73e15317aU, 0xbb978fb9U, 0x3d895a3fbbe35795U,
  0x3e1eaa75bcf6498cU, 0x3e095a3fbc178fb9U, 0x3d92d33b3dd0659eU, 0xbd2a81b03e2366f3U,
  0x3e4ba9203e2f3e2eU, 0x3e0e16bd3e15317aU, 0x3d59de993e38b729U, 0x3d7fc288bcd0659eU,
  0x3d2a81b0bd46eca2U, 0x3c849dc23cf6498cU, 0x3e023f833c178fb9U, 0x3e494ae13d849dc2U,
  0x3d2a81b0bc3d73a7U, 0x3d46eca2bdaa81b0U, 0x3e1eaa75bc178fb9U, 0x3d2108b43da5c532U,
  0xbdf6498c3e049dc2U, 0x3caa81b03de35795U, 0x3d9c4c36be023f83U, 0x3e55221c3dcba920U,
  0x3e2a81b03e38b729U, 0x3d46eca23e319c6cU, 0xbb978fb93d635795U, 0x3e023f83bcaa81b0U,
  0x3e19edf83caa81b0U, 0x3dd0659ebc849dc2U, 0xbcbd73a7bd92d33bU, 0x3dc23025bd0e16bdU,
  0x3e494ae13e178fb9U, 0xbbe35795U, 0x3e049dc23dbd73a7U, 0x3d9c4c363da5c532U,
  0x3d46eca23d46eca2U, 0xbda5c532bda5c532U, 0xbd2108b4bd2108b4U, 0x3cbd73a73e2cdfefU,
  0xbcaa81b03dcba920U, 0xbcf6498cbbe35795U, 0x3d978fb93e023f83U, 0xbd6cd0913dffc288U,
  0x3e3fd1e63be35795U, 0x3dc23025bd33faabU, 0x3e55221c3dfb060aU, 0x3e4ba9203df18d0eU,
  0x3dffc2883e0e16bdU, 0x3d6cd091bc849dc2U, 0x3b178fb93e0bb87eU, 0x3d6cd091be0bb87eU,
  0xbda108b43da108b4U, 0x3e2108b43e1eaa75U, 0x3ce357953d0e16bdU, 0xbd2a81b03e15317aU,
  0x3dffc288U, 0x3d92d33b3e2a81b0U, 0x3d3d73a73e3d73a7U, 0xbc3d73a7bdaa81b0U,
  0x3e3658ea3e3658eaU, 0xbdd0659e3dfb060aU, 0x3d2a81b0bdf18d0eU, 0xbcd0659e3e2a81b0U,
  0x3e59de993de81413U, 0x3c3d73a73db3faabU, 0x3decd0913d178fb9U, 0x3ce357953df18d0eU,
  0x3c178fb9bdb8b729U, 0x3d3d73a73c178fb9U, 0xbcaa81b0bdd0659eU, 0x3dd5221c3e023f83U,
  0x3e2cdfef3e095a3fU, 0x3d8e16bd3caa81b0U, 0x3e0e16bd3e2108b4U, 0x3c849dc23e52c3ddU,
  0x3e5e9b173c3d73a7U, 0x3dd0659ebd635795U, 0x3e2823713d6cd091U, 0x3da5c5323caa81b0U,
  0x3e319c6c3e3b1568U, 0xbd9c4c36bd9c4c36U, 0xbd0e16bd3e7fc288U, 0x3d59de99bce35795U,
  0xbd178fb93e9074fcU, 0x3d6357953caa81b0U, 0x3dd5221c3caa81b0U, 0x3e52c3dd3e2108b4U,
  0x3da5c5323e60f956U, 0xbd978fb93e15317aU, 0x3d46eca23d92d33bU, 0x3cf6498c3c178fb9U,
  0x3e73eb4d3d7fc288U, 0xbdf18d0e3d895a3fU, 0x3cd0659e3e0e16bdU, 0x3c3d73a73df18d0eU,
  0x3dbd73a73caa81b0U, 0x3e319c6c3e095a3fU, 0x3e33faab3e3d73a7U, 0x3d8e16bd3daa81b0U,
  0x3e06fc00bb178fb9U, 0x3ce357953caa81b0U, 0x3dd0659e3d8e16bdU, 0x3c3d73a73e2108b4U,
  0x3d178fb9bb978fb9U, 0x3cbd73a7bdc6eca2U, 0x3d3d73a73d3d73a7U, 0x3d46eca2bbe35795U,
  0x3d178fb93b178fb9U, 0x3d46eca23d178fb9U, 0xbcaa81b03db3faabU, 0xbe06fc003de81413U,
  0x3dbd73a7bdde9b17U, 0x3cf6498c3cbd73a7U, 0xbe049dc2bdfb060aU, 0xbc178fb9be049dc2U,
  0x3d895a3f3d46eca2U, 0xbdb8b729bd3d73a7U, 0xbc849dc2bc849dc2U, 0xbde814133d3d73a7U,
  0x3dd0659ebd8e16bdU, 0x3de81413be095a3fU, 0x3d50659ebcbd73a7U, 0x3d59de993c978fb9U,
  0xbd7fc288bd46eca2U, 0x3da108b43d6cd091U, 0x3db3faabbd46eca2U, 0xbe049dc23c978fb9U,
  0x3d849dc23d2a81b0U, 0x3cbd73a73d895a3fU, 0x3d76498cbc178fb9U, 0xbdc6eca2bd2a81b0U,
  0xbce35795bd6cd091U, 0x3d178fb9bdc23025U, 0xbc178fb9bd59de99U, 0xbd50659e3de35795U,
  0x3da5c532bdc23025U, 0x3da108b4bdfb060aU, 0x3d8e16bd3c635795U, 0x3dd5221c3cd0659eU,
  0xbd178fb9be0e16bdU, 0xbdd5221cbbe35795U, 0xbcd0659ebc635795U, 0x3d849dc23d3d73a7U,
  0xbc178fb93db3faabU, 0xbb178fb9U, 0xbdf18d0ebbe35795U, 0xbd178fb93d3d73a7U,
  0x3d7fc288bb978fb9U, 0x3cbd73a73c978fb9U, 0xbdd9de993d8e16bdU, 0xbd7fc288bd178fb9U,
  0xbe049dc2bde81413U, 0xbdd5221c3dd5221cU, 0xbc978fb9bda5c532U, 0xbd46eca2be0bb87eU,
  0x3db8b7293d76498cU, 0xbb178fb93d9c4c36U, 0x3c6357953ce35795U, 0xbb978fb93dd9de99U,
  0x3d978fb9bdd9de99U, 0x3c3d73a73d3d73a7U, 0x3dc6eca23de81413U, 0xbdb8b729bd0e16bdU,
  0x3d849dc2be023f83U, 0xbd50659e3cf6498cU, 0xbc3d73a7bd178fb9U, 0x3dffc288bdc23025U,
  0xbd849dc2bc178fb9U, 0x3be357953d9c4c36U, 0xbdde9b17bde81413U, 0xbdd0659e3c635795U,
  0x3dbd73a7bd849dc2U, 0x3d6cd0913daf3e2eU, 0x3cbd73a7bc3d73a7U, 0xbdd0659ebd895a3fU,
  0xbd2a81b0bbe35795U, 0x3d59de99be049dc2U, 0x3c3d73a7bd8e16bdU, 0xbce357953dc23025U,
  0xbdd9de993d33faabU, 0xbdde9b17bde35795U, 0x3dde9b17bdc23025U, 0x3de35795bc635795U,
  0xbd59de993d7fc288U, 0x3caa81b0bc635795U, 0xbe095a3fbdb8b729U, 0xbe049dc2bd849dc2U,
  0xbdffc2883d92d33bU, 0xbd8e16bd3de35795U, 0xbcd0659e3b978fb9U, 0xbcd0659ebd7fc288U,
  0x3d46eca2bdcba920U, 0xbdc6eca2bdb3faabU, 0x3b978fb9be049dc2U, 0xbdd5221c3de81413U,
  0xbdffc288bdf6498cU, 0xbcf6498c3de35795U, 0xbdd5221cbcf6498cU, 0xbdffc288bd50659eU,
  0x3d6cd091bdcba920U, 0xbdd9de99bcbd73a7U, 0xbb178fb93d50659eU, 0xbdd0659ebd895a3fU,
  0x3d895a3fbd59de99U, 0xbd76498cbc178fb9U, 0x3daa81b03dd9de99U, 0xbdb8b729bda108b4U,
  0xbdb8b7293d978fb9U, 0xbdcba9203dd5221cU, 0xbdffc288bdffc288U, 0xbe06fc00bda108b4U,
  0x3c3d73a7bd178fb9U, 0x3df6498cbdaf3e2eU, 0xbc978fb93dde9b17U, 0xbdffc2883caa81b0U,
  0xbe0e16bd3d2a81b0U, 0xbd849dc2bdd5221cU, 0x3d178fb9bd895a3fU, 0x3d3d73a7bdde9b17U,
  0x3b978fb93d849dc2U, 0xbcd0659e3d76498cU, 0x3dd0659ebd3d73a7U, 0x3d59de993caa81b0U,
  0xbdd0659ebe049dc2U, 0x3d46eca2bdd9de99U, 0x3d978fb93dbd73a7U, 0xbe049dc2be0e16bdU,
  0x3d049dc2bdaa81b0U, 0x3dc230253c178fb9U, 0xbd50659e3df18d0eU, 0xbdcba92000000000U,
  0xbb178fb93dde9b17U, 0x3d7fc2883d895a3fU, 0xbdf18d0e3c635795U, 0x3cd0659e3c178fb9U,
  0xbdb8b729bda5c532U, 0x3c849dc23dbd73a7U, 0xbdaf3e2eU, 0x3dde9b173d635795U,
  0x3c178fb93dc23025U, 0x3d849dc23daf3e2eU, 0xbdde9b173dd5221cU, 0xbe0bb87e3daf3e2eU,
  0x3c635795bda5c532U, 0xbd6cd0913da108b4U, 0xbd46eca23d2a81b0U, 0xbcf6498c3dcba920U,
  0x3d6357953da108b4U, 0x3dfb060abda5c532U, 0xbe049dc23d895a3fU, 0x3d178fb9bdd5221cU,
  0xbdb3faabbd3d73a7U, 0x3ce357953d6cd091U, 0xbdf18d0ebd0e16bdU, 0x3ce35795bcf6498cU,
  0x3d7fc2883be35795U, 0xbd0e16bdbdaa81b0U, 0x3be3579500000000U, 0xbbe357953ce35795U,
  0xbcf6498cbc849dc2U, 0xbdcba920bd849dc2U, 0x3c3d73a7bd6cd091U, 0x3d895a3fbd6cd091U,
  0xbd7fc288bd7fc288U, 0xbdde9b17bdd5221cU, 0x3dbd73a7bd0e16bdU, 0xbdb8b7293d895a3fU,
  0xbc978fb9bd76498cU, 0x3dfb060abd33faabU, 0xbce357953d7fc288U, 0xbd46eca2bd0e16bdU,
  0xbd0e16bdbdbd73a7U, 0x3dd0659ebd33faabU, 0x3cf6498cbd2a81b0U, 0xbdc6eca2bce35795U,
  0x3d33faabbd3d73a7U, 0x3de357953df6498cU, 0x3df18d0ebd0e16bdU, 0x3d0e16bdbd849dc2U,
  0xbe095a3f3d635795U, 0x3cd0659e00000000U, 0xbdfb060abdecd091U, 0x3c178fb93dd5221cU,
  0x3df6498cbdfb060aU, 0xbe023f83bd33faabU, 0x3d33faab3daa81b0U, 0x3cd0659ebdf18d0eU,
  0xbd92d33bbd895a3fU, 0x3cd0659e3b178fb9U, 0x3c178fb93dc23025U, 0xbdbd73a73be35795U,
  0xbd0e16bdbdb8b729U, 0xbd2a81b0bda108b4U, 0x3caa81b03dd5221cU, 0x3de81413bd8e16bdU,
  0x3daf3e2eU, 0xbce35795bd33faabU, 0x3d849dc2bc849dc2U, 0x3dcba920bdf18d0eU,
  0xbdde9b17bdaf3e2eU, 0xbd33faabbd92d33bU, 0xbda5c5323db3faabU, 0x3c978fb9bdd9de99U,
  0xbdc230253dc23025U, 0xbdf6498cbdd9de99U, 0x3c6357953d849dc2U, 0x3d33faabbd92d33bU,
  0x3d8e16bdbcaa81b0U, 0xbdc6eca23d92d33bU, 0x3dd5221cbe06fc00U, 0xbde35795bd59de99U,
  0x3d3d73a7bc3d73a7U, 0xbde35795be049dc2U, 0xbd049dc2bbe35795U, 0xbcd0659e3dcba920U,
  0x3db3faabbdde9b17U, 0xbc849dc2bd178fb9U, 0xbd76498c00000000U, 0xbd049dc23d8e16bdU,
  0xbdb3faabbd178fb9U, 0x3d049dc2bdd5221cU, 0xbe06fc00bdaa81b0U, 0x3c978fb9bcd0659eU,
  0xbd978fb93d849dc2U, 0xbd46eca2bd978fb9U, 0xbb978fb93dffc288U, 0x3d849dc23d7fc288U,
  0xbd2a81b0bc978fb9U, 0xbd2108b43d3d73a7U, 0x3d50659ebc3d73a7U, 0x3d2a81b0bd9c4c36U,
  0x3d849dc2bdde9b17U, 0xbcbd73a73d178fb9U, 0x3da5c532bdf18d0eU, 0x3d92d33bbe049dc2U,
  0x3d6cd0913b178fb9U, 0x3d0e16bd3cf6498cU, 0xbd2a81b03daa81b0U, 0xbd6cd0913dfb060aU,
  0xbdf18d0e3de81413U, 0x3d849dc23daa81b0U, 0xbd635795bd6cd091U, 0xbc635795bd59de99U,
  0xbc849dc2bb178fb9U, 0x3daa81b0bdaf3e2eU, 0xbd0e16bd3c978fb9U, 0xbcbd73a7bbe35795U,
  0x3b978fb9bdde9b17U, 0xbdd5221cbd7fc288U, 0xbc978fb93dcba920U, 0x3de81413bd895a3fU,
  0xbd46eca23c3d73a7U, 0x3c635795bd33faabU, 0xbdbd73a73b978fb9U, 0x3d0e16bdbdde9b17U,
  0xbd895a3fbd92d33bU, 0x3d8e16bd3d978fb9U, 0xbdd0659e3dfb060aU, 0xbd2108b4bda5c532U,
  0x3d6cd091bdd5221cU, 0x3df6498cbbe35795U, 0xbd0e16bdbd9c4c36U, 0x3d0e16bdbdbd73a7U,
  0xbd46eca2bdf18d0eU, 0xbe095a3f3c978fb9U, 0x3d895a3fbd33faabU, 0x3dd0659ebc978fb9U,
  0xbd0e16bd3c178fb9U, 0xbe095a3f3d895a3fU, 0x3db8b729bdd9de99U, 0x3decd091bc3d73a7U,
  0x3dc230253da108b4U, 0x3d46eca2bde35795U, 0x3d7fc288bd0e16bdU, 0x3c849dc2bdc23025U,
  0x3d978fb9bdfb060aU, 0xbc849dc23d50659eU, 0x3cf6498cbd0e16bdU, 0xbdc6eca2bd76498cU,
  0xbc849dc23b978fb9U, 0x3dd0659ebc978fb9U, 0xbcd0659ebde35795U, 0x3d3d73a7bde35795U,
  0xbd0e16bdbce35795U, 0xbdaa81b03db3faabU, 0x3dde9b173d92d33bU, 0xbe0bb87e3da108b4U,
  0x3daf3e2ebe095a3fU, 0xbcaa81b0bcbd73a7U, 0x3d2108b4bda108b4U, 0x3d33faab3daa81b0U,
  0xbdd0659e3be35795U, 0xbdcba9203db3faabU, 0xbd6cd091bdaf3e2eU, 0x3ce357953daf3e2eU,
  0x3be357953da5c532U, 0xbcf6498c3c849dc2U, 0xbdc230253d895a3fU, 0xbd635795bd049dc2U,
  0xbd2108b4be095a3fU, 0x3d3d73a7bdc6eca2U, 0xbde81413bde81413U, 0xbce357953c849dc2U,
  0x3dc6eca2bdd5221cU, 0x3da5c5323ce35795U, 0xbdb3faab3d33faabU, 0x3de357953c3d73a7U,
  0xbdb3faabbd7fc288U, 0x3d3d73a7bd849dc2U, 0xbe0bb87ebdcba920U, 0x3d76498cbc178fb9U,
  0x3d049dc23b978fb9U, 0xbdf6498cbdde9b17U, 0x3c635795bd46eca2U, 0xbd9c4c36bdbd73a7U,
  0xbd76498cbcf6498cU, 0xbdcba9203dd0659eU, 0x3db3faabbdaa81b0U, 0xbdfb060abdd5221cU,
  0x3decd0913db3faabU, 0x3ce357953be35795U, 0xbc6357953d50659eU, 0x3d895a3fbbe35795U,
  0xbc178fb93d9c4c36U, 0x3d59de993d3d73a7U, 0xbe06fc003dde9b17U, 0xbd049dc23d2108b4U,
  0xbcd0659e3cf6498cU, 0xbcd0659ebdcba920U, 0x3d2108b4bdb3faabU, 0xbde357953d635795U,
  0xbdc6eca23cbd73a7U, 0xbdb3faabbdd0659eU, 0xbb178fb93d635795U, 0xbd2a81b0bd92d33bU,
  0xbdecd091bd6cd091U, 0x3dd0659ebdb8b729U, 0xbdde9b173d9c4c36U, 0x3decd091bdbd73a7U,
  0xbd33faabbbe35795U, 0xbd7fc2883d3d73a7U, 0xbcd0659ebcf6498cU, 0x3c635795bd0e16bdU,
  0xbd978fb93caa81b0U, 0xbdaa81b0bd6cd091U, 0xbd9c4c36bcaa81b0U, 0x3c6357953dd5221cU,
  0x3caa81b0bd3d73a7U, 0x3daf3e2ebce35795U, 0x3d76498cbdb8b729U, 0xbdd0659ebcaa81b0U,
  0xbe0bb87e3decd091U, 0xbd178fb9bde35795U, 0x3b978fb9U, 0x3d7fc2883d92d33bU,
  0xbdb8b7293c978fb9U, 0xbde81413bd0e16bdU, 0x3d978fb93d849dc2U, 0xbcaa81b03daa81b0U,
  0xbc849dc2bda108b4U, 0xbdb8b729bdf6498cU, 0xbc6357953cd0659eU, 0xbc6357953c849dc2U,
  0x3decd091bc635795U, 0xbd849dc23d9c4c36U, 0xbc6357953da108b4U, 0x3db3faab3d049dc2U,
  0xbde357953d6cd091U, 0xbdb3faabbcbd73a7U, 0xbcd0659e3de35795U, 0xbcbd73a73d46eca2U,
  0xbdc230253dde9b17U, 0xbc178fb93dd5221cU, 0xbd049dc200000000U, 0xbcbd73a7bdfb060aU,
  0xbd9c4c363c178fb9U, 0xbdbd73a73d0e16bdU, 0xbd849dc23dd0659eU, 0xbdaa81b03db3faabU,
  0xbd0e16bdbdc6eca2U, 0xbe0bb87e3dfb060aU, 0xbd8e16bd3dc23025U, 0xbc978fb9bc849dc2U,
  0xbda5c532bda108b4U, 0xbcbd73a7bc635795U, 0xbe023f83bd76498cU, 0xbe049dc23dd9de99U,
  0x3daa81b0bd895a3fU, 0x3d6cd091bc3d73a7U, 0xbe319c6cbcd0659eU, 0x3e423025bd049dc2U,
  0xbe049dc23d895a3fU, 0xbd7fc2883d3d73a7U, 0xbde814133d7fc288U, 0xbda108b4bd3d73a7U,
  0xbcaa81b03caa81b0U, 0xbd049dc23dc23025U, 0xbde814133d0e16bdU, 0xbd6357953d0e16bdU,
  0x3e0e16bdbe3d73a7U, 0x3d049dc23b978fb9U, 0x3cbd73a73dd9de99U, 0xbdecd091bdffc288U,
  0xbde35795be12d33bU, 0x3cbd73a7bd76498cU, 0x3cd0659e3d76498cU, 0xbe0e16bd3d8e16bdU,
  0xbd59de99be0bb87eU, 0x3d3d73a7bd46eca2U, 0x3e1eaa753cbd73a7U, 0xbe1eaa753d178fb9U,
  0x3b978fb9bd849dc2U, 0xbd178fb9bdbd73a7U, 0x3be357953d50659eU, 0xbe1074fc3c3d73a7U,
  0xbdfb060a3dcba920U, 0x3e19edf83e2366f3U, 0xbd178fb93e095a3fU, 0xbe25c532bd978fb9U,
  0xbe25c5323e06fc00U, 0x3d978fb9bdc23025U, 0xbd33faab3d9c4c36U, 0xbcaa81b0bd635795U,
  0xbb178fb93da108b4U, 0xbbe357953d9c4c36U, 0xbe12d33b3c978fb9U, 0x3d33faabbcd0659eU,
  0xbd978fb93d0e16bdU, 0xbd46eca23e1c4c36U, 0xbe12d33b3dd5221cU, 0xbd46eca23dfb060aU,
  0xbc849dc2bdde9b17U, 0x3d9c4c363d7fc288U, 0x3df18d0e3be35795U, 0xbd6cd0913d7fc288U,
  0xbd178fb93daf3e2eU, 0x3e494ae1bd049dc2U, 0xbd635795bde35795U, 0x3de357953e1eaa75U,
  0xbd92d33b3b978fb9U, 0x3d8e16bd3c635795U, 0x3daf3e2e3e25c532U, 0xbd0e16bdbdf18d0eU,
  0xbd6cd091bcd0659eU, 0x3c178fb9bd2a81b0U, 0x3df6498cbc978fb9U, 0xbd049dc23cbd73a7U,
  0xbd92d33bbc849dc2U, 0x3d049dc23daf3e2eU, 0x3e049dc23d0e16bdU, 0xbdb8b7293dcba920U,
  0xbd3d73a73dd9de99U, 0x3d978fb93d849dc2U, 0xbcaa81b03d635795U, 0x3d849dc2be2cdfefU,
  0xbe19edf83d50659eU, 0xbd978fb93e2cdfefU, 0xbe049dc23caa81b0U, 0x3cd0659ebc635795U,
  0xbb178fb93d3d73a7U, 0xbc978fb9bd76498cU, 0xbe3658eabd2108b4U, 0xbd92d33b3c849dc2U,
  0x3db3faabbc849dc2U, 0x3c178fb9be095a3fU, 0x3e38b7293e15317aU, 0xbd0e16bd3b978fb9U,
  0xbd59de993d7fc288U, 0x3e3d73a73c978fb9U, 0xbe3658eabd3d73a7U, 0xbdc230253e2108b4U,
  0xbdc23025be06fc00U, 0x3d50659e3ce35795U, 0x3e2cdfef3e3d73a7U, 0x3db3faab3db3faabU,
  0x3d33faabbc178fb9U, 0xbe423025bd978fb9U, 0x3d33faabbe3658eaU, 0xbce35795bd33faabU,
  0xbd0e16bdbcaa81b0U, 0xbd46eca23b978fb9U, 0x3e095a3fbd2a81b0U, 0xbd2a81b0be0e16bdU,
  0xbcd0659ebcbd73a7U, 0x3db8b729be12d33bU, 0xbdc6eca2bd178fb9U, 0x3e2a81b0bdc6eca2U,
  0xbd049dc23e1eaa75U, 0xbe0bb87e3c978fb9U, 0xbdd9de99be319c6cU, 0xbe2366f3bd635795U,
  0xbda5c532be1eaa75U, 0x3e0bb87e3d8e16bdU, 0x3d178fb93ce35795U, 0xbd849dc2bcf6498cU,
  0x3e178fb9bdc23025U, 0xbdc6eca2bdecd091U, 0xbd50659e3e25c532U, 0xbe52c3ddbd46eca2U,
  0xbb178fb9bdbd73a7U, 0x3d33faabbd59de99U, 0xbdaa81b0bde81413U, 0xbb978fb93c978fb9U,
  0xbdb8b729bd0e16bdU, 0x3d9c4c363c178fb9U, 0x3e448e643db3faabU, 0xbe2a81b0U,
  0xbe2a81b03c849dc2U, 0xbd33faabbc178fb9U, 0x3d0e16bd3d7fc288U, 0xbdffc288bd635795U,
  0xbdaf3e2ebd2108b4U, 0x3d7fc2883dd9de99U, 0xbc3d73a7bd6cd091U, 0xbde35795bdaa81b0U,
  0xbd46eca2bd895a3fU, 0x3d895a3fbd46eca2U, 0x3e2108b43d8e16bdU, 0x3decd0913e1eaa75U,
  0xbc978fb9bdd5221cU, 0x3e19edf83d6cd091U, 0x3e38b7293e1eaa75U, 0xbd2a81b03e282371U,
  0x3e0bb87e3d50659eU, 0xbd59de99bc635795U, 0x3d6cd0913d849dc2U, 0xbd978fb93dffc288U,
  0x3b978fb93daa81b0U, 0x3e3b15683d7fc288U, 0x3be35795bdbd73a7U, 0x3e3fd1e63e1074fcU,
  0x3cf6498cbd978fb9U, 0x3d849dc23e3b1568U, 0x3e1eaa75bd049dc2U, 0x3e25c5323dbd73a7U,
  0x3decd0913e15317aU, 0x3cd0659e3db3faabU, 0x3c6357953d895a3fU, 0xbd0e16bd3e3b1568U,
  0x3c6357953dd0659eU, 0x3d9c4c363c635795U, 0xbce357953da5c532U, 0x3d178fb93b178fb9U,
  0xbb178fb9bd0e16bdU, 0xbdaa81b0bc635795U, 0xbdaa81b03dcba920U, 0x3e1074fcbc178fb9U,
  0xbce357953d178fb9U, 0xbc978fb9bc3d73a7U, 0x3d049dc2bcf6498cU, 0xbc635795bd76498cU,
  0xbc3d73a73d50659eU, 0xbd895a3fbde81413U, 0x3db3faab3cd0659eU, 0x3e38b7293e12d33bU,
  0x3e2cdfefbc178fb9U, 0xbdc23025bda108b4U, 0xbd049dc23d2a81b0U, 0x3db3faabbd92d33bU,
  0x3d895a3f3dffc288U, 0x3dd0659e3e38b729U, 0x3d635795bde35795U, 0xbce357953dc6eca2U,
  0xbcbd73a73c635795U, 0xbda5c5323e1c4c36U, 0xbcf6498c3caa81b0U, 0x3df6498cbd8e16bdU,
  0x3e2cdfef3dbd73a7U, 0x3de814133e178fb9U, 0x3d849dc2bd2108b4U, 0xbc6357953e3658eaU,
  0xbcf6498cbd6cd091U, 0x3dffc2883d849dc2U, 0xbd0e16bd3dd5221cU, 0x3cf6498cbd178fb9U,
  0x3e5e9b173ce35795U, 0x3d978fb9bd0e16bdU, 0xbd895a3fbb178fb9U, 0xbc849dc23e2366f3U,
  0x3d9c4c36bcf6498cU, 0xbd2a81b03de81413U, 0x3e1074fc3e3b1568U, 0xbc849dc23e049dc2U,
  0x3e12d33bbdc6eca2U, 0x3d46eca2be049dc2U, 0x3de814133dfb060aU, 0x3de81413bcd0659eU,
  0x3b178fb9bc3d73a7U, 0x3dc23025bd3d73a7U, 0x3d92d33bbce35795U, 0x3d0e16bdbc635795U,
  0x3dbd73a73c635795U, 0xbc3d73a73e3b1568U, 0x3be35795be1074fcU, 0xbd635795bcd0659eU,
  0x3e0e16bd3e2a81b0U, 0xbd8e16bd3e423025U, 0xbcd0659e3dd9de99U, 0x3dde9b173d2108b4U,
  0xbbe35795bc3d73a7U, 0xbce35795bd2a81b0U, 0x3dbd73a7bdecd091U, 0xbd59de993e12d33bU,
  0x3e2a81b03dffc288U, 0x3d46eca23e06fc00U, 0xbdbd73a7bcd0659eU, 0x3e19edf83b178fb9U,
  0x3e0e16bd3d2a81b0U, 0x3c6357953e06fc00U, 0x3d978fb9bdd9de99U, 0x3d895a3fbc849dc2U,
  0x3e095a3fbd849dc2U, 0xbd6357953e3b1568U, 0x3e4ba920bbe35795U, 0xbdaf3e2e3e1074fcU,
  0x3e19edf8bcf6498cU, 0x3db8b7293d049dc2U, 0xbc6357953d178fb9U, 0x3dcba9203e1074fcU,
  0x3daf3e2e3e5c3cd8U, 0xbe023f83bd849dc2U, 0xbd46eca23d849dc2U, 0x3e494ae13da108b4U,
  0xbdd0659e3e38b729U, 0xbcbd73a73e423025U, 0x3daf3e2ebde81413U, 0x3dd0659e3e423025U,
  0x3e1eaa753dd5221cU, 0x3d8e16bd3decd091U, 0x3d7fc2883d9c4c36U, 0x3e06fc003d2108b4U,
  0x3d6cd0913dbd73a7U, 0x3dd5221c3dd9de99U, 0x3dc230253dd9de99U, 0x3db8b7293dcba920U,
  0x3e2a81b03e06fc00U, 0x3e52c3ddbb978fb9U, 0x3e6814133e319c6cU, 0x3e38b7293d50659eU,
  0x3e25c532bda108b4U, 0x3db3faabbd50659eU, 0xbd849dc23de81413U, 0x3d8e16bd3d849dc2U,
  0x3e1074fc3e049dc2U, 0xbcbd73a73daa81b0U, 0xbb978fb93e3fd1e6U, 0xbdffc2883dffc288U,
  0x3e1c4c363d3d73a7U, 0x3e19edf83c978fb9U, 0x3e448e643d895a3fU, 0x3caa81b03d0e16bdU,
  0x3dffc2883e57805bU, 0x3d2a81b0bde35795U, 0x3db3faab3e1074fcU, 0x3d3d73a7bdd5221cU,
  0x3dd0659ebc849dc2U, 0x3e448e643e57805bU, 0x3d7fc2883dd9de99U, 0xbd3d73a7bb978fb9U,
  0x3e494ae1bd33faabU, 0xbd8e16bd3cf6498cU, 0x3e3fd1e63e4e075fU, 0x3daa81b0bcbd73a7U,
  0x3e2366f33d895a3fU, 0xbce357953e06fc00U, 0xbd978fb9bdaf3e2eU, 0x3e46eca23cd0659eU,
  0x3e60f956bcaa81b0U, 0x3e50659e3e3fd1e6U, 0x3decd0913d178fb9U, 0xbd2108b43c978fb9U,
  0x3e0e16bd3c3d73a7U, 0x3e178fb93d978fb9U, 0xbdbd73a7bde35795U, 0xbd049dc2bd7fc288U,
  0x3dffc2883d849dc2U, 0x3d978fb93d049dc2U, 0x3e0bb87e3e3b1568U, 0xbcaa81b03e2f3e2eU,
  0xbb178fb9bce35795U, 0x3d2108b4bdb3faabU, 0x3e3fd1e63e65b5d4U, 0x3e46eca23dffc288U,
  0xbcbd73a73e448e64U, 0x3dbd73a73da5c532U, 0x3c178fb9bd50659eU, 0xbcd0659ebda108b4U,
  0x3dcba9203dde9b17U, 0x3c6357953cd0659eU, 0x3d0e16bdbdcba920U, 0x3da108b43dcba920U,
  0x3d3d73a73da108b4U, 0xbbe3579500000000U, 0xbcd0659e3caa81b0U, 0xbb978fb93c3d73a7U,
  0x3d7fc2883e38b729U, 0x3d9c4c363e0bb87eU, 0x3d049dc2bc178fb9U, 0x3df6498cbd049dc2U,
  0x3df6498cbc849dc2U, 0x3dd5221c3e2a81b0U, 0x3c178fb93e4e075fU, 0xbc3d73a73e494ae1U,
  0x3e5e9b17bdd9de99U, 0x3be35795bdd9de99U, 0xbdc230253dcba920U, 0x3d0e16bd3e25c532U,
  0xbd46eca23daa81b0U, 0x3e1c4c363e2366f3U, 0x3dd9de993dde9b17U, 0x3e095a3f3d178fb9U,
  0x3dd0659ebd8e16bdU, 0x3e3d73a7bdd5221cU, 0x3e023f833d7fc288U, 0x3e282371bb978fb9U,
  0xbcbd73a73e57805bU, 0xbdd9de99bdb8b729U, 0x3e178fb93dcba920U, 0x3d46eca2bd895a3fU,
  0xbe2366f33e25c532U, 0x3e6357953e049dc2U, 0x3be357953d46eca2U, 0x3e33faab3d7fc288U,
  0x3e65b5d4bc849dc2U, 0xbdb3faab3d049dc2U, 0x3dfb060abd849dc2U, 0xbd46eca23dc6eca2U,
  0x3e2108b43e4ba920U, 0xbc3d73a73e1c4c36U, 0xbd7fc2883dd0659eU, 0x3e0e16bd3e178fb9U,
  0xbc3d73a73e06fc00U, 0x3dbd73a73e2108b4U, 0xbd049dc23e12d33bU, 0xbcbd73a7bb178fb9U,
  0xbd178fb93da108b4U, 0xbda108b43be35795U, 0xbbe357953d978fb9U, 0x3daa81b03cbd73a7U,
  0x3e6a72523e33faabU, 0x3d978fb93e46eca2U, 0x3db8b729bc849dc2U, 0x3d6cd0913e7d6449U,
  0x3e52c3dd3dcba920U, 0x3db3faab3d3d73a7U, 0x3e0e16bd3e06fc00U, 0x3d2a81b0bc3d73a7U,
  0xbcbd73a73e1eaa75U, 0xbb178fb93cbd73a7U, 0x3daa81b03e282371U, 0x3c978fb93c635795U,
  0xbe06fc003d2108b4U, 0x3c978fb93c635795U, 0xbc849dc23d049dc2U, 0x3d33faab3e38b729U,
  0x3d0e16bd3d895a3fU, 0xbd50659e3df18d0eU, 0x3d7fc288bc635795U, 0xbd2a81b0bc178fb9U,
  0x3e86fc003dd5221cU, 0xbcbd73a73e46eca2U, 0x3dbd73a7bc178fb9U, 0x3e2823713dfb060aU,
  0x3e8a895f3df18d0eU, 0x3dde9b173d2108b4U, 0x3e448e643dbd73a7U, 0x3e38b7293d895a3fU,
  0x3e92d33bbc635795U, 0x3d9c4c36bdf18d0eU, 0xbdd9de993d9c4c36U, 0x3dd5221c3e1074fcU,
  0xbdc6eca23decd091U, 0xbe0e16bdbe0bb87eU, 0xbe319c6cbb178fb9U, 0xbd635795be049dc2U,
  0x3d895a3f3d849dc2U, 0xbe2a81b03c849dc2U, 0xbd3d73a7be319c6cU, 0xbe319c6cbd9c4c36U,
  0xbd92d33bbdffc288U, 0x3d33faab3e15317aU, 0xbdb8b729be12d33bU, 0xbde814133dcba920U,
  0x3d7fc288be38b729U, 0xbd7fc288U, 0xbc635795bd76498cU, 0x3d33faab3be35795U,
  0x3c849dc23cf6498cU, 0x3da108b4bda5c532U, 0xbd0e16bdbd59de99U, 0xbe12d33b3e049dc2U,
  0x3daa81b0bcaa81b0U, 0x3e33faabbe2f3e2eU, 0xbd2a81b03de81413U, 0x3cd0659ebdf18d0eU,
  0xbd978fb9be12d33bU, 0xbb978fb9be19edf8U, 0x3e095a3fbdffc288U, 0xbe0bb87ebc178fb9U,
  0xbd6357953e2f3e2eU, 0x3da108b43dcba920U, 0x3c3d73a73e46eca2U, 0x3d178fb93da5c532U,
  0xbdbd73a73e06fc00U, 0xbd8e16bdbda108b4U, 0xbe12d33bbe33faabU, 0x3de81413be06fc00U,
  0xbde81413bd33faabU, 0xbd59de99bcd0659eU, 0x3d92d33bbdecd091U, 0x3d0e16bd3d92d33bU,
  0xbe2108b4bc635795U, 0xbd46eca2bd6cd091U, 0xbd049dc23db8b729U, 0xbcf6498c3de35795U,
  0xbd7fc288be2f3e2eU, 0x3caa81b03d50659eU, 0xbdaf3e2ebc178fb9U, 0xbe319c6c3d849dc2U,
  0xbd049dc2bdd9de99U, 0x3c178fb9be0bb87eU, 0x3d849dc2be1eaa75U, 0x3d0e16bd3e25c532U,
  0xbc978fb9bd3d73a7U, 0x3dc23025be3658eaU, 0x3dcba9203cd0659eU, 0x3d9c4c363ce35795U,
  0xbdde9b173d50659eU, 0x3d895a3f3b178fb9U, 0x3da108b4bd33faabU, 0xbcbd73a7be1074fcU,
  0x3d59de993d049dc2U, 0xbd3d73a73de81413U, 0x3df18d0e3e023f83U, 0xbda5c532be2a81b0U,
  0xbd8e16bdbbe35795U, 0x3b978fb93d92d33bU, 0xbde814133cf6498cU, 0xbdc230253c178fb9U,
  0x3d895a3f3d3d73a7U, 0xbce357953d8e16bdU, 0xbd2a81b03cd0659eU, 0xbe33faab3c178fb9U,
  0xbc849dc200000000U, 0xbda5c5323d76498cU, 0xbe2a81b0be12d33bU, 0xbdecd0913e33faabU,
  0x3e319c6cbd0e16bdU, 0xbcf6498cbe1074fcU, 0x3d46eca2bcaa81b0U, 0xbe0bb87e3c849dc2U,
  0xbc178fb9bda5c532U, 0x3db3faabbd46eca2U, 0xbe3d73a73da5c532U, 0x3da5c5323d76498cU,
  0xbcbd73a7bde35795U, 0x3d33faab3cf6498cU, 0x3decd0913e0e16bdU, 0xbdcba920be12d33bU,
  0xbd635795bd895a3fU, 0x3caa81b0bd8e16bdU, 0xbd178fb9be2108b4U, 0xbd92d33b00000000U,
  0xbe06fc003d92d33bU, 0x3dde9b173da5c532U, 0x3e25c5323e25c532U, 0xbe178fb9bd0e16bdU,
  0xbdd0659ebc978fb9U, 0x3d2108b43d92d33bU, 0xbe38b729be19edf8U, 0x3da5c532bd92d33bU,
  0xbdd9de99bd50659eU, 0x3b978fb9bcf6498cU, 0x3c178fb9bce35795U, 0xbde81413bda5c532U,
  0x3db8b729bd50659eU, 0x3d8e16bd3dffc288U, 0xbe38b729be2366f3U, 0x3b978fb93d33faabU,
  0x3dc23025be60f956U, 0xbe0bb87ebdaa81b0U, 0x3d3d73a7bcd0659eU, 0xbdfb060abe46eca2U,
  0xbdd5221c3d50659eU, 0xbd33faab3d049dc2U, 0xbd895a3fbdc23025U, 0xbd8e16bd3e0e16bdU,
  0xbdffc2883dc23025U, 0x3e19edf8be718d0eU, 0xbdaf3e2e3b978fb9U, 0x3d049dc23c978fb9U,
  0xbd895a3fbe1074fcU, 0xbe095a3fbcbd73a7U, 0xbe15317a3d50659eU, 0x3d2a81b03d76498cU,
  0xbe38b7293d2a81b0U, 0xbd0e16bd3cf6498cU, 0x3d33faab3e1074fcU, 0x3d8e16bdbde81413U,
  0xbc978fb9bdb8b729U, 0x3c849dc23decd091U, 0x3d46eca23d2108b4U, 0x3e0e16bd3e19edf8U,
  0x3cf6498cbda5c532U, 0x3e319c6c3df6498cU, 0x3c849dc23dffc288U, 0xbcd0659ebbe35795U,
  0x3d59de993da108b4U, 0x3c978fb9bd9c4c36U, 0x3e2f3e2e3d0e16bdU, 0x3ce357953d635795U,
  0xbe0bb87e3d50659eU, 0xbcf6498c3da108b4U, 0x3c849dc2bd2108b4U, 0x3e19edf8bd46eca2U,
  0xbcd0659e3e095a3fU, 0x3de35795bcaa81b0U, 0x3e282371bda108b4U, 0xbcaa81b03de81413U,
  0x3df6498c3e46eca2U, 0x3d895a3fbc635795U, 0xbdc6eca2U, 0xbcaa81b0bc635795U,
  0x3e4e075fU, 0x3d33faab3e2108b4U, 0xbdbd73a73e2366f3U, 0x3e12d33bbb978fb9U,
  0x3e4230253daf3e2eU, 0x3dc230253d2a81b0U, 0x3dd0659ebdc23025U, 0x3b178fb93b178fb9U,
  0x3e33faab3e095a3fU, 0x3cd0659eU, 0xbc178fb93daa81b0U, 0x3dd9de993b978fb9U,
  0xbc3d73a7bc3d73a7U, 0xbd3d73a73db8b729U, 0x3ce3579500000000U, 0x3e38b7293d33faabU,
  0xbd50659e3e2108b4U, 0xbd92d33b3daa81b0U, 0xbc178fb9bdc23025U, 0x3d2a81b0bd2a81b0U,
  0xbcd0659eU, 0xbc978fb93d635795U, 0x3d8e16bd3d59de99U, 0x3daa81b03e178fb9U,
  0x3de814133df18d0eU, 0xbce357953e319c6cU, 0x3e1c4c36bce35795U, 0xbc635795bdd0659eU,
  0x3e023f833e178fb9U, 0xbe12d33b3dfb060aU, 0x3dbd73a73ce35795U, 0x3e494ae1bc978fb9U,
  0x3c6357953d049dc2U, 0x3e38b7293c635795U, 0x3c63579500000000U, 0xbd178fb93caa81b0U,
  0x3daa81b03db8b729U, 0xbdf6498cU, 0x3d46eca2bd8e16bdU, 0x3e15317a3d50659eU,
  0xbd76498cbda108b4U, 0xbd92d33b3caa81b0U, 0x3db8b7293e049dc2U, 0x3c849dc2bc3d73a7U,
  0x3dfb060abdcba920U, 0xbd50659ebc178fb9U, 0x3d2108b43d3d73a7U, 0x3d895a3f3dd0659eU,
  0xbd049dc23dd0659eU, 0xbdf18d0e3c978fb9U, 0xbcf6498c3e049dc2U, 0xbb978fb9bd33faabU,
  0x3c178fb93df18d0eU, 0x3e2a81b03d46eca2U, 0x3e06fc003daa81b0U, 0x3e50659e3e38b729U,
  0x3e19edf83caa81b0U, 0x3d7fc2883c178fb9U, 0x3e023f833e19edf8U, 0xbd50659e3be35795U,
  0x3e46eca23db8b729U, 0x3d59de99bd849dc2U, 0xbd2108b4bdecd091U, 0x3d049dc23e1eaa75U,
  0x3e1eaa75U, 0x3d46eca23de35795U, 0x3c849dc2bbe35795U, 0x3dd0659e3e3b1568U,
  0x3c3d73a7bcd0659eU, 0xbdbd73a73e1074fcU, 0xbdb3faab3d849dc2U, 0x3e2108b4bd3d73a7U,
  0x3e15317abd8e16bdU, 0x3e023f83bd178fb9U, 0x3e3b15683dbd73a7U, 0xbdb8b7293caa81b0U,
  0x3e19edf800000000U, 0x3e1eaa753d8e16bdU, 0x3e06fc003db8b729U, 0x3dc6eca23e1c4c36U,
  0xbd2a81b03daf3e2eU, 0xbb978fb9bdaa81b0U, 0xbc635795bc3d73a7U, 0x3e15317a3c849dc2U,
  0x3c978fb93e15317aU, 0xbc6357953cf6498cU, 0xbdd5221cbdcba920U, 0x3d59de993d178fb9U,
  0xbd895a3f3b178fb9U, 0xbdd5221c3e7b060aU, 0x3dbd73a73c3d73a7U, 0x3de35795bb178fb9U,
  0x3e836ea2bd049dc2U, 0xbd178fb93e049dc2U, 0xbdc6eca23d895a3fU, 0x3e06fc003e0e16bdU,
  0x3d2108b43d049dc2U, 0x3dffc2883e095a3fU, 0x3c978fb93e59de99U, 0x3dffc2883e2366f3U,
  0x3daf3e2ebdd5221cU, 0x3d7fc288bd635795U, 0xbe023f83bdffc288U, 0x3d8e16bd3da5c532U,
  0x3dc23025bd9c4c36U, 0xbdbd73a73ce35795U, 0xbb978fb93d46eca2U, 0xbb178fb9bd049dc2U,
  0xbc849dc2U, 0xbd0e16bd3c178fb9U, 0xbdffc2883d9c4c36U, 0x3d2a81b0bd2a81b0U,
  0xbdffc2883caa81b0U, 0x3d049dc2be0e16bdU, 0x3cf6498c3cd0659eU, 0xbc6357953d978fb9U,
  0x3df18d0e3d46eca2U, 0x3cd0659e3db8b729U, 0x3b178fb93da108b4U, 0xbd7fc2883dd0659eU,
  0x3d049dc23d46eca2U, 0xbd978fb9bde81413U, 0x3daa81b0bd2108b4U, 0xbdde9b173daa81b0U,
  0xbd50659ebd76498cU, 0x3dbd73a73d895a3fU, 0x3d3d73a7be0bb87eU, 0xbe1074fcbe06fc00U,
  0xbe12d33b3d3d73a7U, 0xbd46eca23dbd73a7U, 0x3dd9de99bb978fb9U, 0xbdb3faab3d978fb9U,
  0xbdd0659e3d635795U, 0xbc3d73a73d9c4c36U, 0x3d2108b4be06fc00U, 0x3c3d73a7bdf18d0eU,
  0xbe095a3f3d92d33bU, 0x3b978fb93d895a3fU, 0x3d9c4c363d7fc288U, 0x3db8b7293d049dc2U,
  0x3d50659ebdaf3e2eU, 0xbd6357953cf6498cU, 0x3daf3e2e3d849dc2U, 0xbd178fb9bda5c532U,
  0xbdbd73a7be0e16bdU, 0xbc849dc2bdd9de99U, 0x3dd5221cbd46eca2U, 0xbde81413bd849dc2U,
  0xbcaa81b03d635795U, 0xbc635795bd76498cU, 0xbb978fb93decd091U, 0x3d46eca23d635795U,
  0x3d895a3fbdc23025U, 0x3c178fb9bce35795U, 0xbdaa81b0bdde9b17U, 0xbd178fb93ce35795U,
  0x3d6cd091bdd0659eU, 0xbd895a3fbd3d73a7U, 0x3db3faabbc849dc2U, 0xbcaa81b0bd46eca2U,
  0x3ce35795bdc23025U, 0xbe06fc003d8e16bdU, 0xbdc6eca23dd5221cU, 0x3d3d73a7bd635795U,
  0xbdfb060a3d2108b4U, 0x3d0e16bd3db8b729U, 0x3d049dc2bc978fb9U, 0x3b178fb9bda108b4U,
  0x3da108b43c849dc2U, 0xbcd0659e3d2a81b0U, 0xbb978fb9bd46eca2U, 0x3dc6eca2bd76498cU,
  0x3dc6eca23d2108b4U, 0xbcbd73a7bb178fb9U, 0xbd46eca2bd978fb9U, 0xbcaa81b03c849dc2U,
  0x3d7fc2883d33faabU, 0xbdc6eca2bdd0659eU, 0xbb178fb93caa81b0U, 0x3d6cd091bde81413U,
  0x3c849dc2bc635795U, 0x3dd5221cbe06fc00U, 0xbdd5221c3d76498cU, 0x3d6357953d59de99U,
  0x3b178fb9bd635795U, 0x3d6cd091bd2108b4U, 0x3dd9de99bcbd73a7U, 0x3d0e16bdbc3d73a7U,
  0x3dbd73a700000000U, 0xbd46eca200000000U, 0x3cbd73a7bdde9b17U, 0x3da108b4bc635795U,
  0xbd46eca23b978fb9U, 0xbdd9de99bd6cd091U, 0x3caa81b0bdfb060aU, 0xbde81413bd33faabU,
  0xbcd0659e3d92d33bU, 0xbdde9b17bdbd73a7U, 0x3c849dc2bde35795U, 0xbd8e16bd3da5c532U,
  0x3d76498cbdc6eca2U, 0xbde35795bd049dc2U, 0x3de35795bd46eca2U, 0xbd46eca23b978fb9U,
  0xbdd5221cbd9c4c36U, 0xbc978fb93cd0659eU, 0x3ce35795bd2a81b0U, 0xbdbd73a73d635795U,
  0xbdb8b729bd7fc288U, 0x3d92d33bU, 0xbd0e16bd3dd5221cU, 0xbdf18d0ebdb3faabU,
  0xbd50659ebbe35795U, 0x3d849dc2bdf6498cU, 0xbdcba9203d978fb9U, 0xbe023f833de81413U,
  0xbb178fb93de81413U, 0x3d978fb9bd59de99U, 0xbe0bb87ebe06fc00U, 0xbd895a3fbdaa81b0U,
  0xbe023f83bcbd73a7U, 0xbd895a3fbe0bb87eU, 0xbd92d33bbb978fb9U, 0xbd849dc23dd9de99U,
  0x3d92d33bbdb8b729U, 0x3d7fc288bdbd73a7U, 0x3de357953d849dc2U, 0x3c978fb9bd9c4c36U,
  0xbc178fb9bd7fc288U, 0x3cf6498cbcaa81b0U, 0xbcd0659e00000000U, 0x3b178fb9bcf6498cU,
  0x3d049dc2be0bb87eU, 0x3dc6eca23c3d73a7U, 0x3cd0659e3e15317aU, 0xbd33faab3cd0659eU,
  0x3e1eaa75bb978fb9U, 0x3e3fd1e600000000U, 0x3cd0659ebc978fb9U, 0x3e19edf83df6498cU,
  0x3c978fb9bc178fb9U, 0xbdaa81b0be0bb87eU, 0x3da108b43dcba920U, 0xbd978fb9bb978fb9U,
  0x3d59de993decd091U, 0x3db3faabbd0e16bdU, 0xbce357953dfb060aU, 0xbb978fb93e3b1568U,
  0x3dfb060a3d50659eU, 0xbd46eca23e33faabU, 0x3e2cdfef00000000U, 0x3e06fc00bc849dc2U,
  0xbd3d73a73e282371U, 0xbcaa81b0bd2108b4U, 0xbe023f833c635795U, 0x3b178fb93e50659eU,
  0x3e2cdfef3cf6498cU, 0x3c635795bc3d73a7U, 0xbde357953e1eaa75U, 0x3c6357953e3d73a7U,
  0x3dd0659e3d9c4c36U, 0x3d049dc23e0e16bdU, 0xbd50659ebd8e16bdU, 0xbd7fc2883d76498cU,
  0x3dd9de99bd635795U, 0x3e095a3fbd2108b4U, 0x3d9c4c363e023f83U, 0xbcf6498c3da108b4U,
  0xbd178fb9bc849dc2U, 0xbcf6498cbdf6498cU, 0x3e19edf83d178fb9U, 0x3daf3e2ebd6cd091U,
  0x3d2108b4bd178fb9U, 0xbd76498cbcbd73a7U, 0x3cbd73a7bd635795U, 0x3dd9de993daf3e2eU,
  0x3d9c4c363d0e16bdU, 0x3e049dc23d049dc2U, 0xbdc23025bc3d73a7U, 0x3d76498c3d59de99U,
  0xbd7fc288bd9c4c36U, 0xbd3d73a73dd5221cU, 0x3d978fb93ce35795U, 0xbc6357953daa81b0U,
  0x3e52c3dd3e3b1568U, 0xbdfb060a3d049dc2U, 0x3d635795bd76498cU, 0x3d6cd0913dd0659eU,
  0x3df18d0e3d9c4c36U, 0x3dcba9203b978fb9U, 0xbc849dc23e5e9b17U, 0x3d895a3fbcaa81b0U,
  0x3e4e075fbcd0659eU, 0x3e0e16bdbdbd73a7U, 0xbdd5221cbdb3faabU, 0x3c178fb93d59de99U,
  0x3d0e16bdbc3d73a7U, 0x3d8e16bdbcd0659eU, 0x3e33faabbc635795U, 0x3d178fb9bc978fb9U,
  0x3d0e16bd3dcba920U, 0xbd33faabbdbd73a7U, 0x3e15317a3d6cd091U, 0x3e50659e3e282371U,
  0x3d6cd0913df18d0eU, 0x3d2a81b03dde9b17U, 0x3e46eca23d6cd091U, 0x3db8b729be023f83U,
  0xbd33faab00000000U, 0x3d92d33b3e1c4c36U, 0x3cf6498cbdaf3e2eU, 0x3d2a81b03daf3e2eU,
  0x3e049dc2bb178fb9U, 0xbd50659ebcd0659eU, 0x3d0e16bd3e06fc00U, 0x3d50659e3daa81b0U,
  0x3e049dc2bc178fb9U, 0x3e023f833dc6eca2U, 0x3daf3e2e3d50659eU, 0x3cf6498c3d0e16bdU,
  0xbd049dc23d849dc2U, 0x3d2108b4bc849dc2U, 0x3dbd73a73da5c532U, 0x3c6357953c978fb9U,
  0x3d0e16bd3d50659eU, 0x3dd0659e3d50659eU, 0x3dcba920bd2a81b0U, 0xbcaa81b03db3faabU,
  0x3d8e16bd3b978fb9U, 0xbc849dc23dffc288U, 0x3c978fb93d2108b4U, 0x3d6cd0913d6cd091U,
  0x3d895a3fbc635795U, 0x3decd091bd46eca2U, 0x3db3faab3dd5221cU, 0x3e1eaa753e15317aU,
  0x3e1c4c363e2366f3U, 0xbdd9de993cf6498cU, 0x3decd0913da5c532U, 0x3e73eb4d3c635795U,
  0x3d849dc23d635795U, 0xbd2108b43e25c532U, 0x3e1074fcbd9c4c36U, 0x3dffc2883de35795U,
  0x3e06fc003df18d0eU, 0xbe25c5323e178fb9U, 0x3d3d73a7bd635795U, 0x3d92d33b3dde9b17U,
  0x3e65b5d4bdaf3e2eU, 0xbd6357953e423025U, 0x3cbd73a7be0e16bdU, 0xbd2108b43c178fb9U,
  0x3d849dc2bc849dc2U, 0x3d33faabbcaa81b0U, 0xbb178fb93d895a3fU, 0xbc6357953dcba920U,
  0x3e8e16bd3e049dc2U, 0xbd3d73a73dbd73a7U, 0xbd6357953d33faabU, 0x3decd0913cf6498cU,
  0x3e1074fc3b178fb9U, 0x3dd5221c3caa81b0U, 0x3cbd73a73e2cdfefU, 0xbe023f83bbe35795U,
  0x3db8b729bdaa81b0U, 0x3e38b7293caa81b0U, 0xbc849dc23e0e16bdU, 0x3d33faabU,
  0x3d178fb93e0bb87eU, 0x3cf6498c3d2a81b0U, 0x3d178fb93e57805bU, 0x3b978fb93d895a3fU,
  0xbe095a3f3df18d0eU, 0x3e0bb87e3c635795U, 0x3dc23025bd3d73a7U, 0x3e2366f33e282371U,
  0x3daa81b0U, 0xbd635795bcd0659eU, 0x3dfb060abb978fb9U, 0x3e0bb87ebda108b4U,
  0x3dc6eca23e0bb87eU, 0xbd6357953e178fb9U, 0x3dbd73a7bcf6498cU, 0x3e1c4c363e4e075fU,
  0x3e4e075f3cd0659eU, 0x3db3faab3ce35795U, 0x3d8e16bdbc178fb9U, 0xbce3579500000000U,
  0xbce35795bde35795U, 0xbdaf3e2ebda108b4U, 0x3d978fb9bdc6eca2U, 0xbcbd73a7bd46eca2U,
  0x3c849dc23e1c4c36U, 0x3dbd73a73cbd73a7U, 0x3d178fb9bd2a81b0U, 0x3d46eca23db8b729U,
  0x3e049dc2bda108b4U, 0xbbe35795bd33faabU, 0x3dbd73a73e50659eU, 0x3d9c4c363e5c3cd8U,
  0x3c3d73a73d76498cU, 0xbdd0659e3d76498cU, 0x3ce357953e0bb87eU, 0x3d3d73a7bd59de99U,
  0x3b978fb93daf3e2eU, 0x3d7fc2883cd0659eU, 0x3cbd73a73dc6eca2U, 0x3d6357953db3faabU,
  0x3c6357953d849dc2U, 0xbcbd73a73e095a3fU, 0x3e38b729bc849dc2U, 0x3da108b43d0e16bdU,
  0x3de357953e423025U, 0x3d978fb93e049dc2U, 0xbdde9b173e2108b4U, 0xbc635795bd635795U,
  0x3b178fb93d2108b4U, 0x3e1eaa753d6cd091U, 0x3dbd73a73c3d73a7U, 0x3dde9b17bcaa81b0U,
  0xbcaa81b03d635795U, 0xbc978fb9bd2a81b0U, 0xbd59de99bdc23025U, 0xbc635795bd33faabU,
  0x3dd5221c3df18d0eU, 0xbd2a81b03e59de99U, 0xbd76498cbc635795U, 0xbd8e16bd3e448e64U,
  0x3d7fc2883dd9de99U, 0x3e3b1568bd635795U, 0x3d6cd0913daf3e2eU, 0xbce35795bd50659eU,
  0x3da108b43d2a81b0U, 0xbc3d73a7bc3d73a7U, 0x3d049dc2bc178fb9U, 0x3e3fd1e63dcba920U,
  0x3d2a81b03d7fc288U, 0x3e3d73a73da108b4U, 0x3daf3e2e3c849dc2U, 0x3e06fc003cf6498cU,
  0x3dbd73a73c3d73a7U, 0x3d76498c3c178fb9U, 0xbcaa81b03dffc288U, 0xbd895a3fbda108b4U,
  0x3e33faab3d7fc288U, 0xbd2108b43daa81b0U, 0x3db8b729bdf6498cU, 0x3e38b7293dd5221cU,
  0x3e3d73a7bd46eca2U, 0x3e2366f3bc978fb9U, 0x3cf6498c3e423025U, 0x3e0bb87e3e423025U,
  0xbcd0659ebdc23025U, 0xbc178fb9bdc6eca2U, 0x3d2a81b03d2108b4U, 0x3e15317a3b178fb9U,
  0x3e2823713d978fb9U, 0x3d2a81b000000000U, 0x3d978fb93dfb060aU, 0x3d2108b43e55221cU,
  0x3e4e075f3dbd73a7U, 0x3be357953e1c4c36U, 0x3d7fc2883c849dc2U, 0x3e12d33b3d92d33bU,
  0x3df18d0e3e095a3fU, 0xbd50659ebce35795U, 0x3e1074fc3e095a3fU, 0x3e023f83bdd9de99U,
  0x3da108b43e76498cU, 0x3caa81b03da108b4U, 0xbce35795bde35795U, 0x3e6a72523d59de99U,
  0x3daa81b03dbd73a7U, 0xbdcba9203da5c532U, 0x3e836ea23e049dc2U, 0x3de814133d049dc2U,
  0x3e76498cbd50659eU, 0xbdb8b7293cbd73a7U, 0x3dd0659ebd178fb9U, 0x3e3fd1e63dcba920U,
  0x3e718d0e3d635795U, 0x3de814133daf3e2eU, 0x3be357953cf6498cU, 0x3be35795bd0e16bdU,
  0x3df6498cbdcba920U, 0x3b178fb9bcaa81b0U, 0xbd8e16bd3daf3e2eU, 0x3d978fb93e023f83U,
  0xbd2108b43e049dc2U, 0x3d8e16bd3de81413U, 0x3da5c5323e2108b4U, 0xbd049dc23d178fb9U,
  0x3d7fc2883d8e16bdU, 0x3e1c4c363c178fb9U, 0x3e095a3f3d7fc288U, 0x3e1eaa753e095a3fU,
  0xbcd0659ebd8e16bdU, 0x3c3d73a7bdcba920U, 0x3d049dc23d59de99U, 0xbd049dc2bdf18d0eU,
  0x3d978fb93e023f83U, 0x3b978fb93d9c4c36U, 0xbd2108b4bdb8b729U, 0xbd2a81b0bc3d73a7U,
  0x3dd5221cbd849dc2U, 0x3dc6eca2bcd0659eU, 0x3e049dc2bd46eca2U, 0x3da5c5323da5c532U,
  0x3d178fb93e2366f3U, 0xbd33faabbc978fb9U, 0x3d50659e3cd0659eU, 0xbd0e16bd3dffc288U,
  0x3e282371bc178fb9U, 0x3d7fc288bd049dc2U, 0x3e2366f33d8e16bdU, 0x3db8b7293e1eaa75U,
  0x3c849dc2bc978fb9U, 0xbd635795bd33faabU, 0x3da108b4bc3d73a7U, 0xbd46eca23e2a81b0U,
  0x3d178fb93e1074fcU, 0x3de357953db8b729U, 0x3e319c6c3e1074fcU, 0x3d7fc2883e023f83U,
  0x3c978fb9bdf6498cU, 0x3e3658eabc3d73a7U, 0xbd635795bd178fb9U, 0x3e319c6c3e319c6cU,
  0x3e2823713d6cd091U, 0x3d978fb900000000U, 0xbc6357953de81413U, 0x3cbd73a7bd178fb9U,
  0x3db3faabbc178fb9U, 0x3e2366f33d849dc2U, 0xbdaf3e2ebdf6498cU, 0x3da5c532bd50659eU,
  0xbcd0659e3e1eaa75U, 0xbc178fb93e15317aU, 0xbd8e16bd3daa81b0U, 0xbd178fb93dd5221cU,
  0xbd76498c3dd9de99U, 0xbcbd73a73d33faabU, 0x3b178fb9bdcba920U, 0x3e095a3f3daa81b0U,
  0x3e06fc003d8e16bdU, 0x3e178fb93caa81b0U, 0x3d59de993e19edf8U, 0x3dfb060a3e2a81b0U,
  0xbc978fb9bd50659eU, 0x3d895a3f3caa81b0U, 0xbdffc288bbe35795U, 0x3e3b15683e282371U,
  0x3e282371bde35795U, 0x3d7fc2883dcba920U, 0x3db8b7293e12d33bU, 0xbdd9de993e0bb87eU,
  0x3d50659e3d635795U, 0x3cbd73a73dd9de99U, 0x3e06fc003db3faabU, 0x3d6357953e023f83U,
  0x3e095a3fbc3d73a7U, 0xbd0e16bd3dcba920U, 0x3c3d73a7bcd0659eU, 0x3e12d33bbd9c4c36U,
  0xbce357953d635795U, 0xbd178fb93e1c4c36U, 0x3d33faabbce35795U, 0xbc178fb93daa81b0U,
  0x3dd0659e3cbd73a7U, 0xbb178fb9bd2a81b0U, 0x3d76498cbc849dc2U, 0x3e023f83bdfb060aU,
  0xbc178fb93df18d0eU, 0xbcf6498c3e095a3fU, 0xbdde9b173c3d73a7U, 0xbd849dc2bce35795U,
  0x3dc6eca23e1eaa75U, 0x3d849dc23e0bb87eU, 0x3d0e16bd00000000U, 0xbce35795bc3d73a7U,
  0x3dcba920bc849dc2U, 0x3c3d73a73dfb060aU, 0x3da108b4bdaa81b0U, 0x3d46eca23d46eca2U,
  0x3e2cdfef3e1074fcU, 0xbd8e16bd3de81413U, 0x3dc23025bb978fb9U, 0x3cf6498c00000000U,
  0x3d2a81b03d3d73a7U, 0xbb978fb9bda5c532U, 0x3e38b729bcaa81b0U, 0xbc6357953c635795U,
  0x3c6357953df18d0eU, 0x3d92d33b3dc23025U, 0xbcbd73a73d978fb9U, 0x3daf3e2ebe023f83U,
  0xbdc23025bcbd73a7U, 0x3d8e16bd3e049dc2U, 0x3decd0913db3faabU, 0x3e023f833c3d73a7U,
  0xbd2108b43d7fc288U, 0x3d46eca23d635795U, 0x3d2a81b0bd9c4c36U, 0x3d895a3fbd3d73a7U,
  0x3da108b4bd3d73a7U, 0x3c178fb93e178fb9U, 0xbdf6498c3df6498cU, 0x3e15317a3daf3e2eU,
  0x3cbd73a73daa81b0U, 0x3e282371bd178fb9U, 0x3da5c532bb178fb9U, 0x3e2a81b03d59de99U,
  0x3e59de99bd178fb9U, 0x3d895a3fbdd0659eU, 0xbcaa81b03b178fb9U, 0xbc849dc23e06fc00U,
  0x3b978fb93d46eca2U, 0xbcd0659ebe1074fcU, 0x3d50659ebd895a3fU, 0xbde814133d849dc2U,
  0x3dcba920bd59de99U, 0x3daf3e2ebd635795U, 0xbdc23025bdb3faabU, 0x3be35795bd0e16bdU,
  0x3dbd73a73d2a81b0U, 0x3cf6498c3decd091U, 0x3db3faabbdde9b17U, 0xbde81413bd178fb9U,
  0xbd46eca2bdaf3e2eU, 0x3de35795bdf6498cU, 0x3dd5221c3daa81b0U, 0xbdd9de993d849dc2U,
  0x3d7fc2883dde9b17U, 0x3decd091bcbd73a7U, 0xbd6cd0913b978fb9U, 0xbe1074fcbdb3faabU,
  0xbc849dc23d6cd091U, 0xbdcba9203ce35795U, 0xbd9c4c36bdbd73a7U, 0xbd178fb93d3d73a7U,
  0x3daa81b0bd76498cU, 0xbd3d73a73dcba920U, 0xbdf6498cbdaa81b0U, 0x3caa81b03db3faabU,
  0xbd849dc23ce35795U, 0xbc978fb93d92d33bU, 0x3d8e16bd3dcba920U, 0xbd7fc2883dd0659eU,
  0xbc978fb93c3d73a7U, 0xbde81413bdcba920U, 0x3d635795bc3d73a7U, 0xbd46eca2be1074fcU,
  0xbb978fb9bdd5221cU, 0xbe1074fcbcbd73a7U, 0xbdc6eca2bd46eca2U, 0xbd33faabbd178fb9U,
  0xbdb3faabbd049dc2U, 0x3d0e16bd3c178fb9U, 0xbbe35795bdaa81b0U, 0x3cf6498cbd978fb9U,
  0xbd2a81b0bd6cd091U, 0xbdb8b7293db3faabU, 0xbd59de99bc849dc2U, 0xbd6cd0913d33faabU,
  0x3de81413bd50659eU, 0x3dd9de993da108b4U, 0xbd978fb93dbd73a7U, 0xbcd0659e3db8b729U,
  0xbd76498cbdd5221cU, 0xbd0e16bd3d849dc2U, 0x3d33faabbcd0659eU, 0xbdd5221c3d849dc2U,
  0xbdfb060abda108b4U, 0xbdcba920bd59de99U, 0xbe0bb87ebdfb060aU, 0xbc849dc2bdecd091U,
  0x3d049dc2bd2a81b0U, 0xbdd5221cbc178fb9U, 0xbda108b43d635795U, 0xbdffc2883de81413U,
  0xbd178fb9bd8e16bdU, 0x3c635795bdffc288U, 0xbdcba9203cbd73a7U, 0xbdd9de993dbd73a7U,
  0x3d895a3fbd6cd091U, 0xbde357953dc23025U, 0xbdb3faab3c849dc2U, 0x3dde9b17bd7fc288U,
  0x3b178fb93dd9de99U, 0xbd9c4c363db3faabU, 0x3d635795be06fc00U, 0xbd8e16bd3dd0659eU,
  0xbe0e16bd3decd091U, 0xbd76498cbc635795U, 0x3d2a81b03d3d73a7U, 0x3cf6498cbdb3faabU,
  0x3d46eca23d92d33bU, 0xbc978fb9be12d33bU, 0xbd895a3f3d46eca2U, 0xbdaf3e2ebd6cd091U,
  0xbd849dc2bd46eca2U, 0xbd895a3fbd9c4c36U, 0xbd6357953da108b4U, 0xbe023f83bdbd73a7U,
  0xbd849dc23d33faabU, 0x3db8b7293d3d73a7U, 0xbd7fc288be06fc00U, 0xbdd0659e3b978fb9U,
  0xbce35795bd76498cU, 0xbdbd73a7bdcba920U, 0xbd3d73a7be06fc00U, 0x3d8e16bd3d0e16bdU,
  0x3de814133d895a3fU, 0xbe0e16bd3caa81b0U, 0xbe06fc00bdaf3e2eU, 0xbd33faabbdfb060aU,
  0xbda108b43dc23025U, 0xbd2108b43c3d73a7U, 0xbc849dc2bdfb060aU, 0x3d33faab3c178fb9U,
  0x3b978fb93d50659eU, 0x3cf6498c3d895a3fU, 0xbd849dc2bd178fb9U, 0x3d2108b4be023f83U,
  0x3daa81b03c178fb9U, 0xbd635795bcf6498cU, 0xbda108b4be023f83U, 0x3dd0659ebe0bb87eU,
  0xbb178fb93dcba920U, 0x3b178fb9be12d33bU, 0x3d635795bbe35795U, 0x3dd0659e3d76498cU,
  0x3d8e16bdbdb3faabU, 0x3d46eca2bcd0659eU, 0x3caa81b0bdf6498cU, 0x3dd0659ebdc23025U,
  0xbd46eca2bda5c532U, 0xbe023f83be023f83U, 0x3dd5221c3d9c4c36U, 0xbbe35795be049dc2U,
  0x3daf3e2ebcaa81b0U, 0x3c635795be1074fcU, 0x3d59de993d3d73a7U, 0x3decd0913dc6eca2U,
  0x3da5c532bcbd73a7U, 0x3c849dc23dcba920U, 0x3e65b5d43dd9de99U, 0x3dd5221c3b178fb9U,
  0xbcbd73a7bb978fb9U, 0x3e3fd1e63dc6eca2U, 0xbd59de99bc978fb9U, 0xbcbd73a73e2a81b0U,
  0xbcbd73a73da5c532U, 0xbc6357953c178fb9U, 0x3da5c5323e178fb9U, 0x3dd5221cbcaa81b0U,
  0xbc178fb93b178fb9U, 0x3dd0659ebd3d73a7U, 0xbd2a81b03caa81b0U, 0x3e06fc003d33faabU,
  0x3daf3e2e3c3d73a7U, 0x3b978fb93e3fd1e6U, 0x3dffc2883d049dc2U, 0x3e2366f33decd091U,
  0xbd8e16bdbb178fb9U, 0xbcaa81b03e59de99U, 0x3d9c4c363be35795U, 0x3dd5221c3da5c532U,
  0xbd2a81b03d6cd091U, 0x3e3658ea3e448e64U, 0x3c6357953e06fc00U, 0x3e38b7293e049dc2U,
  0x3e6cd0913d049dc2U, 0x3dd0659e3db3faabU, 0x3dde9b173d895a3fU, 0x3d59de993db8b729U,
  0x3e50659ebd2108b4U, 0x3d8e16bd3e19edf8U, 0x3dcba9203d978fb9U, 0x3c178fb93dc6eca2U,
  0x3b178fb9bdde9b17U, 0xbcaa81b0bdecd091U, 0x3e2f3e2ebd0e16bdU, 0xbbe357953c849dc2U,
  0x3e1c4c3600000000U, 0xbda5c5323de35795U, 0x3e3fd1e6bcbd73a7U, 0x3e2108b43d50659eU,
  0xbdbd73a73e1c4c36U, 0xbcbd73a7bcbd73a7U, 0x3de35795be1074fcU, 0x3e1c4c363d635795U,
  0x3d59de993e19edf8U, 0x3dd5221c3dd9de99U, 0x3e095a3f3b978fb9U, 0xbd2108b43e1074fcU,
  0x3d2108b4bc635795U, 0x3d7fc2883d9c4c36U, 0x3c6357953e023f83U, 0xbd2a81b03e494ae1U,
  0x3e049dc23dbd73a7U, 0x3df18d0e3db8b729U, 0x3e1eaa753e2366f3U, 0x3e1c4c36bd46eca2U,
  0x3e448e64bd9c4c36U, 0xbd049dc2bde35795U, 0x3dcba9203d9c4c36U, 0x3c6357953ce35795U,
  0xbc635795bd8e16bdU, 0xbd76498c3e4e075fU, 0x3b178fb93e15317aU, 0x3e12d33b3e2108b4U,
  0x3e049dc2bd0e16bdU, 0xbb978fb93d895a3fU, 0x3dffc2883e3fd1e6U, 0xbc6357953dffc288U,
  0x3d895a3fbd46eca2U, 0xbb978fb93dd5221cU, 0x3b978fb9bcf6498cU, 0x3e095a3fbe06fc00U,
  0xbdcba920bc3d73a7U, 0x3de357953e494ae1U, 0xbc178fb9bda5c532U, 0x3d2108b43dde9b17U,
  0x3e2f3e2e3dd5221cU, 0x3c3d73a7bce35795U, 0xbc849dc2bd849dc2U, 0x3e0e16bd3e12d33bU,
  0x3e06fc003e19edf8U, 0xbde814133cbd73a7U, 0xbdb3faabbd0e16bdU, 0x3d46eca23dd9de99U,
  0x3d635795bd46eca2U, 0x3d0e16bd3dd9de99U, 0x3dbd73a73e57805bU, 0x3daa81b0bb978fb9U,
  0x3e15317a3dd0659eU, 0x3dd0659e3de81413U, 0xbdf18d0ebda5c532U, 0x3e023f83bdb3faabU,
  0x3daf3e2e3daf3e2eU, 0x3e3d73a73de81413U, 0x3c849dc23de35795U, 0xbdecd0913e1c4c36U,
  0x3e2a81b0bdaa81b0U, 0x3daf3e2e3dc23025U, 0x3c3d73a73e494ae1U, 0xbce357953e1eaa75U,
  0x3dc6eca23df18d0eU, 0xbd33faab3d178fb9U, 0xbb978fb93d6cd091U, 0x3e6cd091bd635795U,
  0xbdb3faab3dffc288U, 0x3d59de993d178fb9U, 0x3c978fb9bd178fb9U, 0x3e50659e00000000U,
  0x3d049dc2bd178fb9U, 0xbe12d33b3daf3e2eU, 0x3e1eaa753e049dc2U, 0x3e33faabbc635795U,
  0x3e823f833dd5221cU, 0xbe0e16bd3d50659eU, 0x3be357953caa81b0U, 0x3d76498cbb978fb9U,
  0x3e0e16bd3dfb060aU, 0x3dbd73a73e7d6449U, 0x3dfb060a3dbd73a7U, 0x3da108b4bb178fb9U,
  0x3d849dc2bdc23025U, 0xbd3d73a7be06fc00U, 0x3de357953dcba920U, 0x3e2366f33e55221cU,
  0x3dcba9203e023f83U, 0x3df6498c3dfb060aU, 0xbd049dc2bd049dc2U, 0x3d849dc2bd2108b4U,
  0x3d635795bc3d73a7U, 0x3be35795bdc6eca2U, 0xbd50659e3b978fb9U, 0x3db8b7293c849dc2U,
  0x3dbd73a7bbe35795U, 0xbcf6498cbd8e16bdU, 0x3e25c5323e423025U, 0x3dc6eca2bb178fb9U,
  0x3df6498c3be35795U, 0x3d2108b43e19edf8U, 0x3c635795bc978fb9U, 0x3e0e16bd00000000U,
  0xbd2108b43da108b4U, 0xbd2a81b0bc635795U, 0xbd3d73a73e2cdfefU, 0x3d7fc2883d0e16bdU,
  0x3da5c5323dde9b17U, 0xbb178fb93c178fb9U, 0xbd3d73a7bb178fb9U, 0xbd6357953dbd73a7U,
  0x3d6cd091bc178fb9U, 0x3e12d33b3e3d73a7U, 0x3d978fb93e1c4c36U, 0xbbe35795bcaa81b0U,
  0x3dffc288bda108b4U, 0xbcf6498c3df6498cU, 0x3dfb060abe06fc00U, 0x3d92d33b3e0bb87eU,
  0x3e06fc003e0bb87eU, 0x3e2a81b03e3fd1e6U, 0x3e12d33b3d76498cU, 0xbe095a3fbd635795U,
  0x3d33faabbd978fb9U, 0x3cf6498c3ce35795U, 0x3df18d0e3de81413U, 0xbbe3579500000000U,
  0x3d6cd091bd3d73a7U, 0xbda5c5323cf6498cU, 0x3da5c532bd849dc2U, 0x3e25c5323d895a3fU,
  0x3db3faab3d33faabU, 0x3d33faabbd0e16bdU, 0x3d6cd091bd3d73a7U, 0x3e178fb93caa81b0U,
  0x3dc23025bd33faabU, 0xbcaa81b03c849dc2U, 0x3dbd73a73e0bb87eU, 0x3e178fb93d049dc2U,
  0x3da108b4bb978fb9U, 0x3decd0913d76498cU, 0xbd59de993d6cd091U, 0x3d50659e3d2a81b0U,
  0x3d2a81b0bd92d33bU, 0x3daa81b03e52c3ddU, 0xbda108b43db3faabU, 0xbd2108b4bd6cd091U,
  0xbc3d73a7bd178fb9U, 0x3c3d73a7bdbd73a7U, 0xbdb8b7293d178fb9U, 0x3e2366f3bbe35795U,
  0xbcbd73a7U, 0x3dbd73a73cf6498cU, 0x3dc6eca23dffc288U, 0x3e0e16bd3dbd73a7U,
  0x3e12d33bbcaa81b0U, 0x3d7fc2883be35795U, 0xbd59de99bb978fb9U, 0x3d59de993dcba920U,
  0x3df6498c3d7fc288U, 0xbd635795bde81413U, 0x3db3faab3d635795U, 0x3cd0659e3dc6eca2U,
  0x3c178fb93d76498cU, 0x3d46eca23e3b1568U, 0xbde35795bde81413U, 0xbc178fb93e25c532U,
  0xbb178fb93d7fc288U, 0xbd92d33b3da5c532U, 0xbd7fc2883d6cd091U, 0xbd6cd0913cbd73a7U,
  0xbce357953d049dc2U, 0xbc849dc2bc978fb9U, 0xbd46eca23dffc288U, 0x3d3d73a7bb978fb9U,
  0xbbe357953e319c6cU, 0x3df6498c3df18d0eU, 0x3c978fb93e15317aU, 0x3d049dc23dffc288U,
  0x3dd5221cbd978fb9U, 0x3d2a81b0bdaf3e2eU, 0x3decd091bdd5221cU, 0xbd0e16bdbd7fc288U,
  0x3db3faabbd46eca2U, 0x3decd0913e494ae1U, 0x3e1074fc3dfb060aU, 0x3de814133d2108b4U,
  0x3e448e643daa81b0U, 0x3d92d33b3b178fb9U, 0x3c978fb93e448e64U, 0x3decd0913d6cd091U,
  0x3db8b7293d3d73a7U, 0xbda108b43d2a81b0U, 0xbd2108b43e423025U, 0x3e57805bbdc6eca2U,
  0xbdb8b7293e6a7252U, 0x3dd0659ebd7fc288U, 0x3e023f83bd7fc288U, 0x3e3fd1e63e319c6cU,
  0x3da108b43c178fb9U, 0xbc3d73a73e3658eaU, 0xbc3d73a73d895a3fU, 0xbd2a81b0bd3d73a7U,
  0x3e19edf8bc178fb9U, 0xbcf6498c3d2a81b0U, 0xbdb8b72900000000U, 0x3e282371bd33faabU,
  0xbc978fb9bc635795U, 0x3e049dc23e4e075fU, 0x3d3d73a73dd5221cU, 0x3daf3e2e3d0e16bdU,
  0x3d6cd0913da5c532U, 0xbd849dc23de35795U, 0xbdc23025bd049dc2U, 0x3e3d73a73daa81b0U,
  0xbdbd73a73caa81b0U, 0x3d33faabbc178fb9U, 0xbe2cdfef3d2a81b0U, 0x3b178fb9be2cdfefU,
  0x3d2108b43daf3e2eU, 0xbe1c4c363e2366f3U, 0x3cf6498cbdaa81b0U, 0xbdd5221cbdde9b17U,
  0x3d8e16bdbe095a3fU, 0x3d6cd091bcaa81b0U, 0x3be357953d178fb9U, 0x3d7fc2883dd5221cU,
  0x3cf6498cbe55221cU, 0xbe33faab3c635795U, 0x3e25c5323e2f3e2eU, 0xbd3d73a7be282371U,
  0xbd46eca23d3d73a7U, 0x3e5c3cd83db3faabU, 0xbe12d33b3d33faabU, 0x3c178fb93d9c4c36U,
  0x3cbd73a7be33faabU, 0x3d895a3f3c849dc2U, 0x3d0e16bd3dc23025U, 0xbe049dc2bdc23025U,
  0x3be35795be282371U, 0xbdffc2883c3d73a7U, 0x3cd0659ebe2108b4U, 0xbdc230253be35795U,
  0xbe3d73a73e76498cU, 0x3e3658ea3e2366f3U, 0x3dde9b173ce35795U, 0xbe2366f3bdaa81b0U,
  0xbe2f3e2ebcbd73a7U, 0xbe06fc003c3d73a7U, 0xbe282371be049dc2U, 0x3de81413be0e16bdU,
  0xbd049dc23d6cd091U, 0x3df18d0e3e52c3ddU, 0xbda5c532be2f3e2eU, 0xbd635795bdf18d0eU,
  0xbdffc2883d849dc2U, 0x3d6cd0913dd0659eU, 0xbb178fb9bd46eca2U, 0xbe0e16bd3e3658eaU,
  0x3dd5221cbe57805bU, 0xbe319c6cbd2108b4U, 0x3d76498c3e494ae1U, 0xbd978fb9bdd5221cU,
  0xbdecd0913c3d73a7U, 0x3e38b729be1eaa75U, 0x3d33faab3d8e16bdU, 0x3b978fb93daa81b0U,
  0x3b978fb9be1c4c36U, 0x3e2cdfefbc849dc2U, 0x3dc6eca23e049dc2U, 0xbdaf3e2ebe023f83U,
  0xbe57805b3d2108b4U, 0xbdb8b729bdb8b729U, 0x3ce35795be3658eaU, 0xbdb3faabbdaa81b0U,
  0xbc178fb93d46eca2U, 0x3dd0659e3e1074fcU, 0x3c6357953c635795U, 0xbe0e16bdbd895a3fU,
  0x3c178fb93e1eaa75U, 0x3d178fb9be3d73a7U, 0xbe46eca2be2a81b0U, 0x3c178fb9bc849dc2U,
  0x3da5c5323e2a81b0U, 0xbe12d33b3c849dc2U, 0x3cbd73a7bd2a81b0U, 0xbdfb060abc635795U,
  0x3d92d33bbe2366f3U, 0x3d6cd0913d46eca2U, 0x3b178fb9bcd0659eU, 0x3c3d73a73e494ae1U,
  0x3e6cd091bdde9b17U, 0xbe06fc00bda108b4U, 0x3e33faab3e7d6449U, 0x3be35795bd049dc2U,
  0xbdd0659ebdf6498cU, 0x3d8e16bd3dd5221cU, 0x3d049dc2be2108b4U, 0x3d849dc23decd091U,
  0xbdffc288bd6cd091U, 0x3c978fb93e178fb9U, 0x3e023f833df18d0eU, 0xbe06fc003cbd73a7U,
  0xbe2f3e2ebdaf3e2eU, 0xbcf6498cbd849dc2U, 0x3e095a3fbe15317aU, 0xbdfb060abd50659eU,
  0xbc978fb93c849dc2U, 0x3b978fb9bb978fb9U, 0x3d3d73a73d178fb9U, 0x3d2a81b03de35795U,
  0xbe3b15683b978fb9U, 0xbd8e16bdbe095a3fU, 0xbe3fd1e63d3d73a7U, 0xbcf6498cbe73eb4dU,
  0x3d50659e3e12d33bU, 0xbe33faab3dffc288U, 0xbe319c6cbbe35795U, 0x3d46eca23d9c4c36U,
  0xbe319c6cbda5c532U, 0x3dffc2883e3d73a7U, 0xbe3b1568be0e16bdU, 0xbe2a81b03e4ba920U,
  0x3e6a7252be7b060aU, 0xbd92d33b3d178fb9U, 0x3d92d33b3d2108b4U, 0xbe57805bbd6cd091U,
  0xbdf6498cbdd5221cU, 0x3c978fb9bdaf3e2eU, 0xbe57805bbd978fb9U, 0x3d46eca23decd091U,
  0xbde357953cbd73a7U, 0x3e15317abda5c532U, 0x3d849dc23e2cdfefU, 0xbe3d73a7bdde9b17U,
  0xbd849dc2bc978fb9U, 0xbe3b1568bdcba920U, 0x3d2108b4be023f83U, 0x3c978fb9be3b1568U,
  0xbe7d64493d92d33bU, 0x3dc230253d59de99U, 0xbc3d73a73e423025U, 0xbe0bb87ebcaa81b0U,
  0x3d978fb93e095a3fU, 0xbe1074fc3c178fb9U, 0xbd92d33bbdc23025U, 0x3e023f83be0bb87eU,
  0x3d50659e3e095a3fU, 0x3cf6498c3e33faabU, 0x3b978fb93cf6498cU, 0xbd9c4c36bdc6eca2U,
  0x3be35795bd59de99U, 0x3e319c6c3e12d33bU, 0xbe1eaa75bd0e16bdU, 0x3d178fb93e2366f3U,
  0x3db3faabbe1c4c36U, 0xbd2108b43d33faabU, 0x3daa81b0bd76498cU, 0xbde35795bd6cd091U,
  0x3b978fb9bd895a3fU, 0x3d2a81b0bbe35795U, 0x3d049dc23be35795U, 0xbe2366f33d76498cU,
  0xbd59de993b978fb9U, 0x3d849dc2be049dc2U, 0x3e494ae13d2108b4U, 0x3d6cd09100000000U,
  0xbc178fb93cf6498cU, 0xbe15317abe319c6cU, 0x3cf6498cbdecd091U, 0x3c849dc23d849dc2U,
  0x3c6357953c635795U, 0x3e178fb93e12d33bU, 0x3decd0913be35795U, 0xbdc230253dbd73a7U,
  0xbc3d73a7bdd0659eU, 0xbdffc288bd849dc2U, 0xbdffc288bc635795U, 0x3e3b1568bdecd091U,
  0xbdfb060a3e15317aU, 0x3ce357953e023f83U, 0xbcaa81b0be2a81b0U, 0xbb978fb9be12d33bU,
  0xbd178fb9be19edf8U, 0x3c6357953e38b729U, 0xbe2366f3bdfb060aU, 0xbde357953e2a81b0U,
  0x3d2a81b0bdecd091U, 0x3c978fb93d178fb9U, 0xbd33faabbc635795U, 0xbd92d33bbe178fb9U,
  0x3d895a3fbdbd73a7U, 0x3e2cdfef3d33faabU, 0xbbe35795be1eaa75U, 0xbcd0659ebcf6498cU,
  0xbc635795bc978fb9U, 0x3dde9b17be2f3e2eU, 0xbbe35795bd59de99U, 0xbe12d33b3d50659eU,
  0x3cd0659ebdecd091U, 0x3c6357953c849dc2U, 0xbd59de99bdaf3e2eU, 0xbc178fb9bc3d73a7U,
  0x3ce3579500000000U, 0x3dd5221cbdb8b729U, 0xbbe357953e319c6cU, 0xbe15317abe0bb87eU,
  0x3b978fb93d9c4c36U, 0xbe15317abe282371U, 0x3b978fb9bdd9de99U, 0x3caa81b0bdc23025U,
  0x3c178fb93e282371U, 0xbd46eca23e2108b4U, 0xbe282371be25c532U, 0x3d92d33bbe2cdfefU,
  0x3d178fb93d2a81b0U, 0xbce35795bd3d73a7U, 0xbe1074fc3d895a3fU, 0xbc3d73a73da5c532U,
  0x3d895a3f3d59de99U, 0xbd049dc2be2cdfefU, 0x3d33faabbb178fb9U, 0xbe1c4c363d7fc288U,
  0xbe33faabbc635795U, 0x3e0e16bdbe2366f3U, 0xbdaa81b0bd3d73a7U, 0xbd895a3f3c178fb9U,
  0x3d76498c3caa81b0U, 0x3caa81b03b978fb9U, 0xbce357953e494ae1U, 0x3daa81b0be1eaa75U,
  0x3d3d73a7bdd0659eU, 0xbdaa81b03d895a3fU, 0xbd59de993c849dc2U, 0xbe2108b43d46eca2U,
  0x3d3d73a73e1c4c36U, 0x3da108b43cd0659eU, 0x3c6357953e2f3e2eU, 0xbe15317abd178fb9U,
  0x3dc6eca2U, 0xbd049dc2bdb8b729U, 0xbe12d33b3b178fb9U, 0x3d3d73a7bda108b4U,
  0xbd178fb93d6cd091U, 0x3df6498cU, 0xbe448e643d2a81b0U, 0xbe1c4c36be0bb87eU,
  0xbd849dc2bd635795U, 0x3da5c5323de81413U, 0xbe282371be0bb87eU, 0xbdecd0913e5c3cd8U,
  0x3d8e16bdbe5e9b17U, 0x3caa81b03cd0659eU, 0x3daa81b03e06fc00U, 0x3d2108b4be0bb87eU,
  0xbd92d33bbd9c4c36U, 0x3e50659ebdc23025U, 0xbe33faab3d635795U, 0x3caa81b03b178fb9U,
  0xbc178fb9bd978fb9U, 0xbc635795bc978fb9U, 0x3e15317abc3d73a7U, 0x3c3d73a73d92d33bU,
  0xbd2108b4be2108b4U, 0x3c6357953cd0659eU, 0xbd3d73a7bc978fb9U, 0x3c3d73a7bc178fb9U,
  0xbe25c532bd2108b4U, 0x3dffc2883dffc288U, 0x3da108b43d8e16bdU, 0xbd849dc2bb978fb9U,
  0x3d8e16bdbd50659eU, 0xbd76498c3e46eca2U, 0x3dcba9203ce35795U, 0x3daa81b03e1eaa75U,
  0x3cbd73a73d92d33bU, 0x3e33faab3dd5221cU, 0xbd895a3f3dde9b17U, 0xbc178fb9bc849dc2U,
  0x3d92d33b3e2a81b0U, 0x3decd0913dfb060aU, 0x3e1eaa753e38b729U, 0x3e0e16bd3ce35795U,
  0xbdffc2883e1074fcU, 0x3e19edf83d8e16bdU, 0xbc3d73a7bd635795U, 0x3d59de993e319c6cU,
  0x3e049dc23da5c532U, 0xbd7fc288bb178fb9U, 0xbd895a3f3b178fb9U, 0x3e38b7293d635795U,
  0xbd76498c3da108b4U, 0xbdd5221cbcd0659eU, 0xbdcba920U, 0x3daa81b03e33faabU,
  0x3caa81b0bd635795U, 0x3e46eca23e1074fcU, 0x3df18d0e3e282371U, 0x3dd9de993e319c6cU,
  0x3c3d73a73e049dc2U, 0xbde814133db3faabU, 0x3d178fb93d895a3fU, 0x3e1074fcbc849dc2U,
  0x3e049dc23daa81b0U, 0x3e33faab3d2a81b0U, 0xbc178fb93dd0659eU, 0xbd895a3f3dfb060aU,
  0xbcaa81b03d049dc2U, 0x3e1074fc3e1074fcU, 0xbc178fb9bd6cd091U, 0xbc978fb93e0e16bdU,
  0xbc849dc23db3faabU, 0xbd2108b43daf3e2eU, 0x3daf3e2e3ce35795U, 0x3d9c4c363cf6498cU,
  0xbdfb060a3da5c532U, 0x3e15317a3dc23025U, 0x3d8e16bdbdfb060aU, 0x3e0bb87ebb978fb9U,
  0x3da108b43d7fc288U, 0x3decd0913daf3e2eU, 0x3dd9de993e0bb87eU, 0x3daa81b0bc978fb9U,
  0xbc3d73a73d2a81b0U, 0xbd895a3f3e282371U, 0x3b178fb93e06fc00U, 0x3dde9b17bd50659eU,
  0x3dd9de993da108b4U, 0xbcbd73a7bd635795U, 0xbd178fb9bc978fb9U, 0xbce357953e12d33bU,
  0x3e448e64bdaa81b0U, 0xbde814133e1074fcU, 0x3d2a81b0be15317aU, 0x3df6498c3e2108b4U,
  0x3d2108b4bdcba920U, 0xbd0e16bd3dde9b17U, 0x3d92d33bbd2a81b0U, 0xbe178fb93e718d0eU,
  0x3cf6498c3dde9b17U, 0xbc178fb93c178fb9U, 0x3b978fb93b978fb9U, 0x3e178fb9bcbd73a7U,
  0xbc849dc23de81413U, 0xbd6cd091bdd5221cU, 0x3e33faab3d049dc2U, 0x3e2366f33daf3e2eU,
  0xbd6cd0913d76498cU, 0x3d6357953c635795U, 0xbe023f833db8b729U, 0xbd59de993dcba920U,
  0x3dcba9203e1eaa75U, 0x3d049dc2bd59de99U, 0x3e55221c3dd5221cU, 0xbcd0659ebd049dc2U,
  0x3e2823713e319c6cU, 0xbdb3faab3d178fb9U, 0x3daf3e2e3d46eca2U, 0x3e15317a3b178fb9U,
  0x3db8b7293cf6498cU, 0x3e06fc003e1074fcU, 0xbd6cd0913d178fb9U, 0x3e2108b4bd895a3fU,
  0xbd978fb9bb978fb9U, 0xbb978fb93cbd73a7U, 0x3db3faabbd2108b4U, 0x3c849dc23d76498cU,
  0x3dfb060a3c849dc2U, 0x3b178fb93df18d0eU, 0x3c849dc23e12d33bU, 0xbdde9b173d0e16bdU,
  0xbc3d73a7bdaf3e2eU, 0x3e5e9b173d978fb9U, 0x3dc6eca23de35795U, 0x3e0bb87e3e319c6cU,
  0x3dd5221c3c178fb9U, 0x3c849dc2bd895a3fU, 0x3e2108b43d8e16bdU, 0x3d59de993d7fc288U,
  0x3da108b43e823f83U, 0x3e15317a3e178fb9U, 0x3daf3e2ebdc6eca2U, 0x3e60f9563e3d73a7U,
  0x3e15317a3cf6498cU, 0x3be357953e52c3ddU, 0x3e2a81b0bbe35795U, 0x3daa81b0be2108b4U,
  0x3e2823713db8b729U, 0x3d0e16bd3e1074fcU, 0xbe095a3fbd7fc288U, 0x3e023f8300000000U,
  0x3daf3e2e3d46eca2U, 0x3e282371bb178fb9U, 0xbc3d73a73e25c532U, 0xbc178fb93e19edf8U,
  0x3e86fc00bd2108b4U, 0xbd978fb93e095a3fU, 0x3d049dc2bd178fb9U, 0x3da108b43de35795U,
  0xbd178fb9bd895a3fU, 0xbd849dc2bd049dc2U, 0xbe023f833daf3e2eU, 0xbd9c4c363d7fc288U,
  0x3d895a3f3d7fc288U, 0x3d3d73a7U, 0x3d76498c3d978fb9U, 0xbc849dc2bd92d33bU,
  0xbd33faabbcbd73a7U, 0xbd2a81b0bda108b4U, 0x3dffc288bd50659eU, 0xbcaa81b03d7fc288U,
  0xbd849dc23c3d73a7U, 0xbda108b43d0e16bdU, 0xbcd0659e3df18d0eU, 0xbb178fb93b178fb9U,
  0x3db3faab3de35795U, 0xbd978fb93d33faabU, 0x3c849dc2bd178fb9U, 0x3d0e16bd3daa81b0U,
  0xbd76498c3d59de99U, 0xbdc23025bd978fb9U, 0x3c3d73a7be06fc00U, 0xbe06fc00bd76498cU,
  0x3c3d73a73db8b729U, 0x3d6cd091bd2108b4U, 0x3d6cd0913daf3e2eU, 0xbe06fc00bd2108b4U,
  0xbc3d73a73d2a81b0U, 0xbda5c5323db8b729U, 0xbdc6eca2bcaa81b0U, 0x3d9c4c363d0e16bdU,
  0xbd50659ebe0bb87eU, 0x3d049dc2bdd9de99U, 0x3b178fb9bcaa81b0U, 0xbda108b4bdf6498cU,
  0xbd2108b43d59de99U, 0xbdde9b173c978fb9U, 0xbbe35795be06fc00U, 0x3dbd73a7bdbd73a7U,
  0xbd0e16bdbc3d73a7U, 0xbdf6498c3d978fb9U, 0xbdecd0913dcba920U, 0xbc178fb9bd59de99U,
  0xbdde9b173d76498cU, 0xbd92d33b3d92d33bU, 0xbd2a81b0bd59de99U, 0xbdffc2883d7fc288U,
  0xbd8e16bdbcd0659eU, 0x3cf6498cbe023f83U, 0x3d978fb93d76498cU, 0xbd76498c3d33faabU,
  0x3d33faabbdcba920U, 0x3dbd73a7bdecd091U, 0xbb178fb9bdaa81b0U, 0x3c178fb93c849dc2U,
  0x3de814133caa81b0U, 0x3c178fb9bdf6498cU, 0xbd178fb9bd2a81b0U, 0xbe095a3f3df6498cU,
  0x3dd9de99bda5c532U, 0xbd46eca23d76498cU, 0x3c849dc2be049dc2U, 0x3d92d33bbe049dc2U,
  0xbd0e16bdbd3d73a7U, 0xbdbd73a7bda108b4U, 0xbd33faab3c3d73a7U, 0x3daa81b0bdcba920U,
  0x3d46eca2bcaa81b0U, 0xbd0e16bd3c978fb9U, 0x3d0e16bdbda5c532U, 0x3c635795bb978fb9U,
  0xbdbd73a73d46eca2U, 0x3c978fb9bc635795U, 0xbdbd73a73cd0659eU, 0x3db8b729bdcba920U,
  0xbdb3faab3caa81b0U, 0x3c978fb93d7fc288U, 0xbe06fc003cd0659eU, 0xbdb3faabbd2108b4U,
  0xbdecd0913d33faabU, 0xbd33faabbcbd73a7U, 0x3d50659ebdd5221cU, 0xbd978fb9bd33faabU,
  0x3cbd73a73d6cd091U, 0xbcf6498cbdb3faabU, 0x3d895a3fbb978fb9U, 0xbd9c4c363d46eca2U,
  0xbde35795bd50659eU, 0x3d895a3f3d2108b4U, 0xbcf6498c3decd091U, 0x3d33faabbe0bb87eU,
  0xbdde9b17bdd0659eU, 0x3dc6eca2bdecd091U, 0x3b978fb9bc849dc2U, 0xbd978fb9be023f83U,
  0xbce35795bd049dc2U, 0xbd92d33bbc849dc2U, 0xbd7fc288bd50659eU, 0x3cf6498cbdde9b17U,
  0xbb978fb9bd895a3fU, 0x3d6cd091bdf6498cU, 0xbbe357953dfb060aU, 0x3c635795bd33faabU,
  0xbb978fb93de81413U, 0x3dcba9203d849dc2U, 0xbb978fb9bd7fc288U, 0x3df6498cbd2a81b0U,
  0x3dd5221c3db8b729U, 0xbde814133d0e16bdU, 0x3c978fb9bdcba920U, 0xbd0e16bd3caa81b0U,
  0xbcf6498cbde81413U, 0xbdaa81b03da5c532U, 0xbc635795bd92d33bU, 0x3d7fc2883dcba920U,
  0xbb978fb93db3faabU, 0xbda108b43cbd73a7U, 0xbdffc2883c978fb9U, 0xbe0bb87ebe0bb87eU,
  0x3dd5221c3d849dc2U, 0x3d33faabbd59de99U, 0x3c635795bd46eca2U, 0xbdf6498cbdd5221cU,
  0xbdd0659e3dde9b17U, 0xbc849dc23d92d33bU, 0xbc3d73a73dc23025U, 0x3b178fb93be35795U,
  0x3d978fb93e19edf8U, 0xbd2a81b0bbe35795U, 0xbd46eca23e1c4c36U, 0xbd92d33bbd895a3fU,
  0x3e06fc00bdbd73a7U, 0x3e3d73a73d849dc2U, 0x3d33faab3d46eca2U, 0x3b178fb93e2f3e2eU,
  0x3e423025bd9c4c36U, 0xbde357953dc23025U, 0xbd33faab3e095a3fU, 0x3d7fc288bdde9b17U,
  0xbe095a3f3daa81b0U, 0x3c6357953d635795U, 0x3d635795bdd5221cU, 0x3df6498cbd3d73a7U,
  0x3d9c4c363d0e16bdU, 0x3d895a3f3d50659eU, 0x3dfb060abdaa81b0U, 0x3cbd73a73dde9b17U,
  0x3d76498c3c978fb9U, 0xbc849dc2bce35795U, 0xbe095a3f3d2a81b0U, 0x3e12d33bbd6cd091U,
  0x3e2f3e2e3cf6498cU, 0x3e2a81b03da108b4U, 0xbd46eca2bd6cd091U, 0x3d178fb9bd7fc288U,
  0x3da108b4bdc23025U, 0x3cf6498c3d6cd091U, 0x3e023f833dd0659eU, 0x3de81413bc3d73a7U,
  0x3e2a81b03e12d33bU, 0x3b978fb93d2a81b0U, 0x3e2a81b03e1eaa75U, 0xbd0e16bdbc635795U,
  0xbd7fc2883d635795U, 0x3df18d0ebd0e16bdU, 0xbcd0659e3de81413U, 0x3d849dc2bc178fb9U,
  0x3d3d73a73d178fb9U, 0xbdecd0913e049dc2U, 0x3e2a81b03d049dc2U, 0x3e178fb9bdc23025U,
  0x3c3d73a73d92d33bU, 0x3db3faab3e178fb9U, 0x3b178fb9bbe35795U, 0x3cf6498c3cbd73a7U,
  0x3daf3e2e3db8b729U, 0xbd7fc2883c178fb9U, 0x3e2366f33d049dc2U, 0x3d46eca2bcd0659eU,
  0xbb978fb93dc6eca2U, 0xbd895a3f3e06fc00U, 0xbcf6498c3d59de99U, 0x3da108b43e0e16bdU,
  0x3e0bb87e3e33faabU, 0x3e2366f3bd178fb9U, 0xbdc230253df18d0eU, 0xbcd0659e3da108b4U,
  0x3e2cdfefbd7fc288U, 0xbdd5221cbd76498cU, 0xbdcba920bd76498cU, 0xbd6357953e0bb87eU,
